{
  "version": "1.0",
  "truncation": null,
  "padding": null,
  "added_tokens": [
    {
      "id": 0,
      "content": "<|endoftext|>",
      "single_word": false,
      "lstrip": false,
      "rstrip": false,
      "normalized": false,
      "special": true
    },
    {
      "id": 1,
      "content": "<0x00>",
      "single_word": false,
      "lstrip": false,
      "rstrip": false,
      "normalized": false,
      "special": true
    },
    {
      "id": 2,
      "content": "<0x01>",
      "single_word": false,
      "lstrip": false,
      "rstrip": false,
      "normalized": false,
      "special": true
    },
    {
      "id": 3,
      "content": "<0x02>",
      "single_word": false,
      "lstrip": false,
      "rstrip": false,
      "normalized": false,
      "special": true
    },
    {
      "id": 4,
      "content": "<0x03>",
      "single_word": false,
      "lstrip": false,
      "rstrip": false,
      "normalized": false,
      "special": true
    },
    {
      "id": 5,
      "content": "<0x04>",
      "single_word": false,
      "lstrip": false,
      "rstrip": false,
      "normalized": false,
      "special": true
    },
    {
      "id": 6,
      "content": "<0x05>",
      "single_word": false,
      "lstrip": false,
      "rstrip": false,
      "normalized": false,
      "special": true
    },
    {
      "id": 7,
      "content": "<0x06>",
      "single_word": false,
      "lstrip": false,
      "rstrip": false,
      "normalized": false,
      "special": true
    },
    {
      "id": 8,
      "content": "<0x07>",
      "single_word": false,
      "lstrip": false,
      "rstrip": false,
      "normalized": false,
      "special": true
    },
    {
      "id": 9,
      "content": "<0x08>",
      "single_word": false,
      "lstrip": false,
      "rstrip": false,
      "normalized": false,
      "special": true
    },
    {
      "id": 10,
      "content": "<0x09>",
      "single_word": false,
      "lstrip": false,
      "rstrip": false,
      "normalized": false,
      "special": true
    },
    {
      "id": 11,
      "content": "<0x0A>",
      "single_word": false,
      "lstrip": false,
      "rstrip": false,
      "normalized": false,
      "special": true
    },
    {
      "id": 12,
      "content": "<0x0B>",
      "single_word": false,
      "lstrip": false,
      "rstrip": false,
      "normalized": false,
      "special": true
    },
    {
      "id": 13,
      "content": "<0x0C>",
      "single_word": false,
      "lstrip": false,
      "rstrip": false,
      "normalized": false,
      "special": true
    },
    {
      "id": 14,
      "content": "<0x0D>",
      "single_word": false,
      "lstrip": false,
      "rstrip": false,
      "normalized": false,
      "special": true
    },
    {
      "id": 15,
      "content": "<0x0E>",
      "single_word": false,
      "lstrip": false,
      "rstrip": false,
      "normalized": false,
      "special": true
    },
    {
      "id": 16,
      "content": "<0x0F>",
      "single_word": false,
      "lstrip": false,
      "rstrip": false,
      "normalized": false,
      "special": true
    },
    {
      "id": 17,
      "content": "<0x10>",
      "single_word": false,
      "lstrip": false,
      "rstrip": false,
      "normalized": false,
      "special": true
    },
    {
      "id": 18,
      "content": "<0x11>",
      "single_word": false,
      "lstrip": false,
      "rstrip": false,
      "normalized": false,
      "special": true
    },
    {
      "id": 19,
      "content": "<0x12>",
      "single_word": false,
      "lstrip": false,
      "rstrip": false,
      "normalized": false,
      "special": true
    },
    {
      "id": 20,
      "content": "<0x13>",
      "single_word": false,
      "lstrip": false,
      "rstrip": false,
      "normalized": false,
      "special": true
    },
    {
      "id": 21,
      "content": "<0x14>",
      "single_word": false,
      "lstrip": false,
      "rstrip": false,
      "normalized": false,
      "special": true
    },
    {
      "id": 22,
      "content": "<0x15>",
      "single_word": false,
      "lstrip": false,
      "rstrip": false,
      "normalized": false,
      "special": true
    },
    {
      "id": 23,
      "content": "<0x16>",
      "single_word": false,
      "lstrip": false,
      "rstrip": false,
      "normalized": false,
      "special": true
    },
    {
      "id": 24,
      "content": "<0x17>",
      "single_word": false,
      "lstrip": false,
      "rstrip": false,
      "normalized": false,
      "special": true
    },
    {
      "id": 25,
      "content": "<0x18>",
      "single_word": false,
      "lstrip": false,
      "rstrip": false,
      "normalized": false,
      "special": true
    },
    {
      "id": 26,
      "content": "<0x19>",
      "single_word": false,
      "lstrip": false,
      "rstrip": false,
      "normalized": false,
      "special": true
    },
    {
      "id": 27,
      "content": "<0x1A>",
      "single_word": false,
      "lstrip": false,
      "rstrip": false,
      "normalized": false,
      "special": true
    },
    {
      "id": 28,
      "content": "<0x1B>",
      "single_word": false,
      "lstrip": false,
      "rstrip": false,
      "normalized": false,
      "special": true
    },
    {
      "id": 29,
      "content": "<0x1C>",
      "single_word": false,
      "lstrip": false,
      "rstrip": false,
      "normalized": false,
      "special": true
    },
    {
      "id": 30,
      "content": "<0x1D>",
      "single_word": false,
      "lstrip": false,
      "rstrip": false,
      "normalized": false,
      "special": true
    },
    {
      "id": 31,
      "content": "<0x1E>",
      "single_word": false,
      "lstrip": false,
      "rstrip": false,
      "normalized": false,
      "special": true
    },
    {
      "id": 32,
      "content": "<0x1F>",
      "single_word": false,
      "lstrip": false,
      "rstrip": false,
      "normalized": false,
      "special": true
    },
    {
      "id": 33,
      "content": "<0x20>",
      "single_word": false,
      "lstrip": false,
      "rstrip": false,
      "normalized": false,
      "special": true
    },
    {
      "id": 34,
      "content": "<0x21>",
      "single_word": false,
      "lstrip": false,
      "rstrip": false,
      "normalized": false,
      "special": true
    },
    {
      "id": 35,
      "content": "<0x22>",
      "single_word": false,
      "lstrip": false,
      "rstrip": false,
      "normalized": false,
      "special": true
    },
    {
      "id": 36,
      "content": "<0x23>",
      "single_word": false,
      "lstrip": false,
      "rstrip": false,
      "normalized": false,
      "special": true
    },
    {
      "id": 37,
      "content": "<0x24>",
      "single_word": false,
      "lstrip": false,
      "rstrip": false,
      "normalized": false,
      "special": true
    },
    {
      "id": 38,
      "content": "<0x25>",
      "single_word": false,
      "lstrip": false,
      "rstrip": false,
      "normalized": false,
      "special": true
    },
    {
      "id": 39,
      "content": "<0x26>",
      "single_word": false,
      "lstrip": false,
      "rstrip": false,
      "normalized": false,
      "special": true
    },
    {
      "id": 40,
      "content": "<0x27>",
      "single_word": false,
      "lstrip": false,
      "rstrip": false,
      "normalized": false,
      "special": true
    },
    {
      "id": 41,
      "content": "<0x28>",
      "single_word": false,
      "lstrip": false,
      "rstrip": false,
      "normalized": false,
      "special": true
    },
    {
      "id": 42,
      "content": "<0x29>",
      "single_word": false,
      "lstrip": false,
      "rstrip": false,
      "normalized": false,
      "special": true
    },
    {
      "id": 43,
      "content": "<0x2A>",
      "single_word": false,
      "lstrip": false,
      "rstrip": false,
      "normalized": false,
      "special": true
    },
    {
      "id": 44,
      "content": "<0x2B>",
      "single_word": false,
      "lstrip": false,
      "rstrip": false,
      "normalized": false,
      "special": true
    },
    {
      "id": 45,
      "content": "<0x2C>",
      "single_word": false,
      "lstrip": false,
      "rstrip": false,
      "normalized": false,
      "special": true
    },
    {
      "id": 46,
      "content": "<0x2D>",
      "single_word": false,
      "lstrip": false,
      "rstrip": false,
      "normalized": false,
      "special": true
    },
    {
      "id": 47,
      "content": "<0x2E>",
      "single_word": false,
      "lstrip": false,
      "rstrip": false,
      "normalized": false,
      "special": true
    },
    {
      "id": 48,
      "content": "<0x2F>",
      "single_word": false,
      "lstrip": false,
      "rstrip": false,
      "normalized": false,
      "special": true
    },
    {
      "id": 49,
      "content": "<0x30>",
      "single_word": false,
      "lstrip": false,
      "rstrip": false,
      "normalized": false,
      "special": true
    },
    {
      "id": 50,
      "content": "<0x31>",
      "single_word": false,
      "lstrip": false,
      "rstrip": false,
      "normalized": false,
      "special": true
    },
    {
      "id": 51,
      "content": "<0x32>",
      "single_word": false,
      "lstrip": false,
      "rstrip": false,
      "normalized": false,
      "special": true
    },
    {
      "id": 52,
      "content": "<0x33>",
      "single_word": false,
      "lstrip": false,
      "rstrip": false,
      "normalized": false,
      "special": true
    },
    {
      "id": 53,
      "content": "<0x34>",
      "single_word": false,
      "lstrip": false,
      "rstrip": false,
      "normalized": false,
      "special": true
    },
    {
      "id": 54,
      "content": "<0x35>",
      "single_word": false,
      "lstrip": false,
      "rstrip": false,
      "normalized": false,
      "special": true
    },
    {
      "id": 55,
      "content": "<0x36>",
      "single_word": false,
      "lstrip": false,
      "rstrip": false,
      "normalized": false,
      "special": true
    },
    {
      "id": 56,
      "content": "<0x37>",
      "single_word": false,
      "lstrip": false,
      "rstrip": false,
      "normalized": false,
      "special": true
    },
    {
      "id": 57,
      "content": "<0x38>",
      "single_word": false,
      "lstrip": false,
      "rstrip": false,
      "normalized": false,
      "special": true
    },
    {
      "id": 58,
      "content": "<0x39>",
      "single_word": false,
      "lstrip": false,
      "rstrip": false,
      "normalized": false,
      "special": true
    },
    {
      "id": 59,
      "content": "<0x3A>",
      "single_word": false,
      "lstrip": false,
      "rstrip": false,
      "normalized": false,
      "special": true
    },
    {
      "id": 60,
      "content": "<0x3B>",
      "single_word": false,
      "lstrip": false,
      "rstrip": false,
      "normalized": false,
      "special": true
    },
    {
      "id": 61,
      "content": "<0x3C>",
      "single_word": false,
      "lstrip": false,
      "rstrip": false,
      "normalized": false,
      "special": true
    },
    {
      "id": 62,
      "content": "<0x3D>",
      "single_word": false,
      "lstrip": false,
      "rstrip": false,
      "normalized": false,
      "special": true
    },
    {
      "id": 63,
      "content": "<0x3E>",
      "single_word": false,
      "lstrip": false,
      "rstrip": false,
      "normalized": false,
      "special": true
    },
    {
      "id": 64,
      "content": "<0x3F>",
      "single_word": false,
      "lstrip": false,
      "rstrip": false,
      "normalized": false,
      "special": true
    },
    {
      "id": 65,
      "content": "<0x40>",
      "single_word": false,
      "lstrip": false,
      "rstrip": false,
      "normalized": false,
      "special": true
    },
    {
      "id": 66,
      "content": "<0x41>",
      "single_word": false,
      "lstrip": false,
      "rstrip": false,
      "normalized": false,
      "special": true
    },
    {
      "id": 67,
      "content": "<0x42>",
      "single_word": false,
      "lstrip": false,
      "rstrip": false,
      "normalized": false,
      "special": true
    },
    {
      "id": 68,
      "content": "<0x43>",
      "single_word": false,
      "lstrip": false,
      "rstrip": false,
      "normalized": false,
      "special": true
    },
    {
      "id": 69,
      "content": "<0x44>",
      "single_word": false,
      "lstrip": false,
      "rstrip": false,
      "normalized": false,
      "special": true
    },
    {
      "id": 70,
      "content": "<0x45>",
      "single_word": false,
      "lstrip": false,
      "rstrip": false,
      "normalized": false,
      "special": true
    },
    {
      "id": 71,
      "content": "<0x46>",
      "single_word": false,
      "lstrip": false,
      "rstrip": false,
      "normalized": false,
      "special": true
    },
    {
      "id": 72,
      "content": "<0x47>",
      "single_word": false,
      "lstrip": false,
      "rstrip": false,
      "normalized": false,
      "special": true
    },
    {
      "id": 73,
      "content": "<0x48>",
      "single_word": false,
      "lstrip": false,
      "rstrip": false,
      "normalized": false,
      "special": true
    },
    {
      "id": 74,
      "content": "<0x49>",
      "single_word": false,
      "lstrip": false,
      "rstrip": false,
      "normalized": false,
      "special": true
    },
    {
      "id": 75,
      "content": "<0x4A>",
      "single_word": false,
      "lstrip": false,
      "rstrip": false,
      "normalized": false,
      "special": true
    },
    {
      "id": 76,
      "content": "<0x4B>",
      "single_word": false,
      "lstrip": false,
      "rstrip": false,
      "normalized": false,
      "special": true
    },
    {
      "id": 77,
      "content": "<0x4C>",
      "single_word": false,
      "lstrip": false,
      "rstrip": false,
      "normalized": false,
      "special": true
    },
    {
      "id": 78,
      "content": "<0x4D>",
      "single_word": false,
      "lstrip": false,
      "rstrip": false,
      "normalized": false,
      "special": true
    },
    {
      "id": 79,
      "content": "<0x4E>",
      "single_word": false,
      "lstrip": false,
      "rstrip": false,
      "normalized": false,
      "special": true
    },
    {
      "id": 80,
      "content": "<0x4F>",
      "single_word": false,
      "lstrip": false,
      "rstrip": false,
      "normalized": false,
      "special": true
    },
    {
      "id": 81,
      "content": "<0x50>",
      "single_word": false,
      "lstrip": false,
      "rstrip": false,
      "normalized": false,
      "special": true
    },
    {
      "id": 82,
      "content": "<0x51>",
      "single_word": false,
      "lstrip": false,
      "rstrip": false,
      "normalized": false,
      "special": true
    },
    {
      "id": 83,
      "content": "<0x52>",
      "single_word": false,
      "lstrip": false,
      "rstrip": false,
      "normalized": false,
      "special": true
    },
    {
      "id": 84,
      "content": "<0x53>",
      "single_word": false,
      "lstrip": false,
      "rstrip": false,
      "normalized": false,
      "special": true
    },
    {
      "id": 85,
      "content": "<0x54>",
      "single_word": false,
      "lstrip": false,
      "rstrip": false,
      "normalized": false,
      "special": true
    },
    {
      "id": 86,
      "content": "<0x55>",
      "single_word": false,
      "lstrip": false,
      "rstrip": false,
      "normalized": false,
      "special": true
    },
    {
      "id": 87,
      "content": "<0x56>",
      "single_word": false,
      "lstrip": false,
      "rstrip": false,
      "normalized": false,
      "special": true
    },
    {
      "id": 88,
      "content": "<0x57>",
      "single_word": false,
      "lstrip": false,
      "rstrip": false,
      "normalized": false,
      "special": true
    },
    {
      "id": 89,
      "content": "<0x58>",
      "single_word": false,
      "lstrip": false,
      "rstrip": false,
      "normalized": false,
      "special": true
    },
    {
      "id": 90,
      "content": "<0x59>",
      "single_word": false,
      "lstrip": false,
      "rstrip": false,
      "normalized": false,
      "special": true
    },
    {
      "id": 91,
      "content": "<0x5A>",
      "single_word": false,
      "lstrip": false,
      "rstrip": false,
      "normalized": false,
      "special": true
    },
    {
      "id": 92,
      "content": "<0x5B>",
      "single_word": false,
      "lstrip": false,
      "rstrip": false,
      "normalized": false,
      "special": true
    },
    {
      "id": 93,
      "content": "<0x5C>",
      "single_word": false,
      "lstrip": false,
      "rstrip": false,
      "normalized": false,
      "special": true
    },
    {
      "id": 94,
      "content": "<0x5D>",
      "single_word": false,
      "lstrip": false,
      "rstrip": false,
      "normalized": false,
      "special": true
    },
    {
      "id": 95,
      "content": "<0x5E>",
      "single_word": false,
      "lstrip": false,
      "rstrip": false,
      "normalized": false,
      "special": true
    },
    {
      "id": 96,
      "content": "<0x5F>",
      "single_word": false,
      "lstrip": false,
      "rstrip": false,
      "normalized": false,
      "special": true
    },
    {
      "id": 97,
      "content": "<0x60>",
      "single_word": false,
      "lstrip": false,
      "rstrip": false,
      "normalized": false,
      "special": true
    },
    {
      "id": 98,
      "content": "<0x61>",
      "single_word": false,
      "lstrip": false,
      "rstrip": false,
      "normalized": false,
      "special": true
    },
    {
      "id": 99,
      "content": "<0x62>",
      "single_word": false,
      "lstrip": false,
      "rstrip": false,
      "normalized": false,
      "special": true
    },
    {
      "id": 100,
      "content": "<0x63>",
      "single_word": false,
      "lstrip": false,
      "rstrip": false,
      "normalized": false,
      "special": true
    },
    {
      "id": 101,
      "content": "<0x64>",
      "single_word": false,
      "lstrip": false,
      "rstrip": false,
      "normalized": false,
      "special": true
    },
    {
      "id": 102,
      "content": "<0x65>",
      "single_word": false,
      "lstrip": false,
      "rstrip": false,
      "normalized": false,
      "special": true
    },
    {
      "id": 103,
      "content": "<0x66>",
      "single_word": false,
      "lstrip": false,
      "rstrip": false,
      "normalized": false,
      "special": true
    },
    {
      "id": 104,
      "content": "<0x67>",
      "single_word": false,
      "lstrip": false,
      "rstrip": false,
      "normalized": false,
      "special": true
    },
    {
      "id": 105,
      "content": "<0x68>",
      "single_word": false,
      "lstrip": false,
      "rstrip": false,
      "normalized": false,
      "special": true
    },
    {
      "id": 106,
      "content": "<0x69>",
      "single_word": false,
      "lstrip": false,
      "rstrip": false,
      "normalized": false,
      "special": true
    },
    {
      "id": 107,
      "content": "<0x6A>",
      "single_word": false,
      "lstrip": false,
      "rstrip": false,
      "normalized": false,
      "special": true
    },
    {
      "id": 108,
      "content": "<0x6B>",
      "single_word": false,
      "lstrip": false,
      "rstrip": false,
      "normalized": false,
      "special": true
    },
    {
      "id": 109,
      "content": "<0x6C>",
      "single_word": false,
      "lstrip": false,
      "rstrip": false,
      "normalized": false,
      "special": true
    },
    {
      "id": 110,
      "content": "<0x6D>",
      "single_word": false,
      "lstrip": false,
      "rstrip": false,
      "normalized": false,
      "special": true
    },
    {
      "id": 111,
      "content": "<0x6E>",
      "single_word": false,
      "lstrip": false,
      "rstrip": false,
      "normalized": false,
      "special": true
    },
    {
      "id": 112,
      "content": "<0x6F>",
      "single_word": false,
      "lstrip": false,
      "rstrip": false,
      "normalized": false,
      "special": true
    },
    {
      "id": 113,
      "content": "<0x70>",
      "single_word": false,
      "lstrip": false,
      "rstrip": false,
      "normalized": false,
      "special": true
    },
    {
      "id": 114,
      "content": "<0x71>",
      "single_word": false,
      "lstrip": false,
      "rstrip": false,
      "normalized": false,
      "special": true
    },
    {
      "id": 115,
      "content": "<0x72>",
      "single_word": false,
      "lstrip": false,
      "rstrip": false,
      "normalized": false,
      "special": true
    },
    {
      "id": 116,
      "content": "<0x73>",
      "single_word": false,
      "lstrip": false,
      "rstrip": false,
      "normalized": false,
      "special": true
    },
    {
      "id": 117,
      "content": "<0x74>",
      "single_word": false,
      "lstrip": false,
      "rstrip": false,
      "normalized": false,
      "special": true
    },
    {
      "id": 118,
      "content": "<0x75>",
      "single_word": false,
      "lstrip": false,
      "rstrip": false,
      "normalized": false,
      "special": true
    },
    {
      "id": 119,
      "content": "<0x76>",
      "single_word": false,
      "lstrip": false,
      "rstrip": false,
      "normalized": false,
      "special": true
    },
    {
      "id": 120,
      "content": "<0x77>",
      "single_word": false,
      "lstrip": false,
      "rstrip": false,
      "normalized": false,
      "special": true
    },
    {
      "id": 121,
      "content": "<0x78>",
      "single_word": false,
      "lstrip": false,
      "rstrip": false,
      "normalized": false,
      "special": true
    },
    {
      "id": 122,
      "content": "<0x79>",
      "single_word": false,
      "lstrip": false,
      "rstrip": false,
      "normalized": false,
      "special": true
    },
    {
      "id": 123,
      "content": "<0x7A>",
      "single_word": false,
      "lstrip": false,
      "rstrip": false,
      "normalized": false,
      "special": true
    },
    {
      "id": 124,
      "content": "<0x7B>",
      "single_word": false,
      "lstrip": false,
      "rstrip": false,
      "normalized": false,
      "special": true
    },
    {
      "id": 125,
      "content": "<0x7C>",
      "single_word": false,
      "lstrip": false,
      "rstrip": false,
      "normalized": false,
      "special": true
    },
    {
      "id": 126,
      "content": "<0x7D>",
      "single_word": false,
      "lstrip": false,
      "rstrip": false,
      "normalized": false,
      "special": true
    },
    {
      "id": 127,
      "content": "<0x7E>",
      "single_word": false,
      "lstrip": false,
      "rstrip": false,
      "normalized": false,
      "special": true
    },
    {
      "id": 128,
      "content": "<0x7F>",
      "single_word": false,
      "lstrip": false,
      "rstrip": false,
      "normalized": false,
      "special": true
    },
    {
      "id": 129,
      "content": "<0x80>",
      "single_word": false,
      "lstrip": false,
      "rstrip": false,
      "normalized": false,
      "special": true
    },
    {
      "id": 130,
      "content": "<0x81>",
      "single_word": false,
      "lstrip": false,
      "rstrip": false,
      "normalized": false,
      "special": true
    },
    {
      "id": 131,
      "content": "<0x82>",
      "single_word": false,
      "lstrip": false,
      "rstrip": false,
      "normalized": false,
      "special": true
    },
    {
      "id": 132,
      "content": "<0x83>",
      "single_word": false,
      "lstrip": false,
      "rstrip": false,
      "normalized": false,
      "special": true
    },
    {
      "id": 133,
      "content": "<0x84>",
      "single_word": false,
      "lstrip": false,
      "rstrip": false,
      "normalized": false,
      "special": true
    },
    {
      "id": 134,
      "content": "<0x85>",
      "single_word": false,
      "lstrip": false,
      "rstrip": false,
      "normalized": false,
      "special": true
    },
    {
      "id": 135,
      "content": "<0x86>",
      "single_word": false,
      "lstrip": false,
      "rstrip": false,
      "normalized": false,
      "special": true
    },
    {
      "id": 136,
      "content": "<0x87>",
      "single_word": false,
      "lstrip": false,
      "rstrip": false,
      "normalized": false,
      "special": true
    },
    {
      "id": 137,
      "content": "<0x88>",
      "single_word": false,
      "lstrip": false,
      "rstrip": false,
      "normalized": false,
      "special": true
    },
    {
      "id": 138,
      "content": "<0x89>",
      "single_word": false,
      "lstrip": false,
      "rstrip": false,
      "normalized": false,
      "special": true
    },
    {
      "id": 139,
      "content": "<0x8A>",
      "single_word": false,
      "lstrip": false,
      "rstrip": false,
      "normalized": false,
      "special": true
    },
    {
      "id": 140,
      "content": "<0x8B>",
      "single_word": false,
      "lstrip": false,
      "rstrip": false,
      "normalized": false,
      "special": true
    },
    {
      "id": 141,
      "content": "<0x8C>",
      "single_word": false,
      "lstrip": false,
      "rstrip": false,
      "normalized": false,
      "special": true
    },
    {
      "id": 142,
      "content": "<0x8D>",
      "single_word": false,
      "lstrip": false,
      "rstrip": false,
      "normalized": false,
      "special": true
    },
    {
      "id": 143,
      "content": "<0x8E>",
      "single_word": false,
      "lstrip": false,
      "rstrip": false,
      "normalized": false,
      "special": true
    },
    {
      "id": 144,
      "content": "<0x8F>",
      "single_word": false,
      "lstrip": false,
      "rstrip": false,
      "normalized": false,
      "special": true
    },
    {
      "id": 145,
      "content": "<0x90>",
      "single_word": false,
      "lstrip": false,
      "rstrip": false,
      "normalized": false,
      "special": true
    },
    {
      "id": 146,
      "content": "<0x91>",
      "single_word": false,
      "lstrip": false,
      "rstrip": false,
      "normalized": false,
      "special": true
    },
    {
      "id": 147,
      "content": "<0x92>",
      "single_word": false,
      "lstrip": false,
      "rstrip": false,
      "normalized": false,
      "special": true
    },
    {
      "id": 148,
      "content": "<0x93>",
      "single_word": false,
      "lstrip": false,
      "rstrip": false,
      "normalized": false,
      "special": true
    },
    {
      "id": 149,
      "content": "<0x94>",
      "single_word": false,
      "lstrip": false,
      "rstrip": false,
      "normalized": false,
      "special": true
    },
    {
      "id": 150,
      "content": "<0x95>",
      "single_word": false,
      "lstrip": false,
      "rstrip": false,
      "normalized": false,
      "special": true
    },
    {
      "id": 151,
      "content": "<0x96>",
      "single_word": false,
      "lstrip": false,
      "rstrip": false,
      "normalized": false,
      "special": true
    },
    {
      "id": 152,
      "content": "<0x97>",
      "single_word": false,
      "lstrip": false,
      "rstrip": false,
      "normalized": false,
      "special": true
    },
    {
      "id": 153,
      "content": "<0x98>",
      "single_word": false,
      "lstrip": false,
      "rstrip": false,
      "normalized": false,
      "special": true
    },
    {
      "id": 154,
      "content": "<0x99>",
      "single_word": false,
      "lstrip": false,
      "rstrip": false,
      "normalized": false,
      "special": true
    },
    {
      "id": 155,
      "content": "<0x9A>",
      "single_word": false,
      "lstrip": false,
      "rstrip": false,
      "normalized": false,
      "special": true
    },
    {
      "id": 156,
      "content": "<0x9B>",
      "single_word": false,
      "lstrip": false,
      "rstrip": false,
      "normalized": false,
      "special": true
    },
    {
      "id": 157,
      "content": "<0x9C>",
      "single_word": false,
      "lstrip": false,
      "rstrip": false,
      "normalized": false,
      "special": true
    },
    {
      "id": 158,
      "content": "<0x9D>",
      "single_word": false,
      "lstrip": false,
      "rstrip": false,
      "normalized": false,
      "special": true
    },
    {
      "id": 159,
      "content": "<0x9E>",
      "single_word": false,
      "lstrip": false,
      "rstrip": false,
      "normalized": false,
      "special": true
    },
    {
      "id": 160,
      "content": "<0x9F>",
      "single_word": false,
      "lstrip": false,
      "rstrip": false,
      "normalized": false,
      "special": true
    },
    {
      "id": 161,
      "content": "<0xA0>",
      "single_word": false,
      "lstrip": false,
      "rstrip": false,
      "normalized": false,
      "special": true
    },
    {
      "id": 162,
      "content": "<0xA1>",
      "single_word": false,
      "lstrip": false,
      "rstrip": false,
      "normalized": false,
      "special": true
    },
    {
      "id": 163,
      "content": "<0xA2>",
      "single_word": false,
      "lstrip": false,
      "rstrip": false,
      "normalized": false,
      "special": true
    },
    {
      "id": 164,
      "content": "<0xA3>",
      "single_word": false,
      "lstrip": false,
      "rstrip": false,
      "normalized": false,
      "special": true
    },
    {
      "id": 165,
      "content": "<0xA4>",
      "single_word": false,
      "lstrip": false,
      "rstrip": false,
      "normalized": false,
      "special": true
    },
    {
      "id": 166,
      "content": "<0xA5>",
      "single_word": false,
      "lstrip": false,
      "rstrip": false,
      "normalized": false,
      "special": true
    },
    {
      "id": 167,
      "content": "<0xA6>",
      "single_word": false,
      "lstrip": false,
      "rstrip": false,
      "normalized": false,
      "special": true
    },
    {
      "id": 168,
      "content": "<0xA7>",
      "single_word": false,
      "lstrip": false,
      "rstrip": false,
      "normalized": false,
      "special": true
    },
    {
      "id": 169,
      "content": "<0xA8>",
      "single_word": false,
      "lstrip": false,
      "rstrip": false,
      "normalized": false,
      "special": true
    },
    {
      "id": 170,
      "content": "<0xA9>",
      "single_word": false,
      "lstrip": false,
      "rstrip": false,
      "normalized": false,
      "special": true
    },
    {
      "id": 171,
      "content": "<0xAA>",
      "single_word": false,
      "lstrip": false,
      "rstrip": false,
      "normalized": false,
      "special": true
    },
    {
      "id": 172,
      "content": "<0xAB>",
      "single_word": false,
      "lstrip": false,
      "rstrip": false,
      "normalized": false,
      "special": true
    },
    {
      "id": 173,
      "content": "<0xAC>",
      "single_word": false,
      "lstrip": false,
      "rstrip": false,
      "normalized": false,
      "special": true
    },
    {
      "id": 174,
      "content": "<0xAD>",
      "single_word": false,
      "lstrip": false,
      "rstrip": false,
      "normalized": false,
      "special": true
    },
    {
      "id": 175,
      "content": "<0xAE>",
      "single_word": false,
      "lstrip": false,
      "rstrip": false,
      "normalized": false,
      "special": true
    },
    {
      "id": 176,
      "content": "<0xAF>",
      "single_word": false,
      "lstrip": false,
      "rstrip": false,
      "normalized": false,
      "special": true
    },
    {
      "id": 177,
      "content": "<0xB0>",
      "single_word": false,
      "lstrip": false,
      "rstrip": false,
      "normalized": false,
      "special": true
    },
    {
      "id": 178,
      "content": "<0xB1>",
      "single_word": false,
      "lstrip": false,
      "rstrip": false,
      "normalized": false,
      "special": true
    },
    {
      "id": 179,
      "content": "<0xB2>",
      "single_word": false,
      "lstrip": false,
      "rstrip": false,
      "normalized": false,
      "special": true
    },
    {
      "id": 180,
      "content": "<0xB3>",
      "single_word": false,
      "lstrip": false,
      "rstrip": false,
      "normalized": false,
      "special": true
    },
    {
      "id": 181,
      "content": "<0xB4>",
      "single_word": false,
      "lstrip": false,
      "rstrip": false,
      "normalized": false,
      "special": true
    },
    {
      "id": 182,
      "content": "<0xB5>",
      "single_word": false,
      "lstrip": false,
      "rstrip": false,
      "normalized": false,
      "special": true
    },
    {
      "id": 183,
      "content": "<0xB6>",
      "single_word": false,
      "lstrip": false,
      "rstrip": false,
      "normalized": false,
      "special": true
    },
    {
      "id": 184,
      "content": "<0xB7>",
      "single_word": false,
      "lstrip": false,
      "rstrip": false,
      "normalized": false,
      "special": true
    },
    {
      "id": 185,
      "content": "<0xB8>",
      "single_word": false,
      "lstrip": false,
      "rstrip": false,
      "normalized": false,
      "special": true
    },
    {
      "id": 186,
      "content": "<0xB9>",
      "single_word": false,
      "lstrip": false,
      "rstrip": false,
      "normalized": false,
      "special": true
    },
    {
      "id": 187,
      "content": "<0xBA>",
      "single_word": false,
      "lstrip": false,
      "rstrip": false,
      "normalized": false,
      "special": true
    },
    {
      "id": 188,
      "content": "<0xBB>",
      "single_word": false,
      "lstrip": false,
      "rstrip": false,
      "normalized": false,
      "special": true
    },
    {
      "id": 189,
      "content": "<0xBC>",
      "single_word": false,
      "lstrip": false,
      "rstrip": false,
      "normalized": false,
      "special": true
    },
    {
      "id": 190,
      "content": "<0xBD>",
      "single_word": false,
      "lstrip": false,
      "rstrip": false,
      "normalized": false,
      "special": true
    },
    {
      "id": 191,
      "content": "<0xBE>",
      "single_word": false,
      "lstrip": false,
      "rstrip": false,
      "normalized": false,
      "special": true
    },
    {
      "id": 192,
      "content": "<0xBF>",
      "single_word": false,
      "lstrip": false,
      "rstrip": false,
      "normalized": false,
      "special": true
    },
    {
      "id": 193,
      "content": "<0xC0>",
      "single_word": false,
      "lstrip": false,
      "rstrip": false,
      "normalized": false,
      "special": true
    },
    {
      "id": 194,
      "content": "<0xC1>",
      "single_word": false,
      "lstrip": false,
      "rstrip": false,
      "normalized": false,
      "special": true
    },
    {
      "id": 195,
      "content": "<0xC2>",
      "single_word": false,
      "lstrip": false,
      "rstrip": false,
      "normalized": false,
      "special": true
    },
    {
      "id": 196,
      "content": "<0xC3>",
      "single_word": false,
      "lstrip": false,
      "rstrip": false,
      "normalized": false,
      "special": true
    },
    {
      "id": 197,
      "content": "<0xC4>",
      "single_word": false,
      "lstrip": false,
      "rstrip": false,
      "normalized": false,
      "special": true
    },
    {
      "id": 198,
      "content": "<0xC5>",
      "single_word": false,
      "lstrip": false,
      "rstrip": false,
      "normalized": false,
      "special": true
    },
    {
      "id": 199,
      "content": "<0xC6>",
      "single_word": false,
      "lstrip": false,
      "rstrip": false,
      "normalized": false,
      "special": true
    },
    {
      "id": 200,
      "content": "<0xC7>",
      "single_word": false,
      "lstrip": false,
      "rstrip": false,
      "normalized": false,
      "special": true
    },
    {
      "id": 201,
      "content": "<0xC8>",
      "single_word": false,
      "lstrip": false,
      "rstrip": false,
      "normalized": false,
      "special": true
    },
    {
      "id": 202,
      "content": "<0xC9>",
      "single_word": false,
      "lstrip": false,
      "rstrip": false,
      "normalized": false,
      "special": true
    },
    {
      "id": 203,
      "content": "<0xCA>",
      "single_word": false,
      "lstrip": false,
      "rstrip": false,
      "normalized": false,
      "special": true
    },
    {
      "id": 204,
      "content": "<0xCB>",
      "single_word": false,
      "lstrip": false,
      "rstrip": false,
      "normalized": false,
      "special": true
    },
    {
      "id": 205,
      "content": "<0xCC>",
      "single_word": false,
      "lstrip": false,
      "rstrip": false,
      "normalized": false,
      "special": true
    },
    {
      "id": 206,
      "content": "<0xCD>",
      "single_word": false,
      "lstrip": false,
      "rstrip": false,
      "normalized": false,
      "special": true
    },
    {
      "id": 207,
      "content": "<0xCE>",
      "single_word": false,
      "lstrip": false,
      "rstrip": false,
      "normalized": false,
      "special": true
    },
    {
      "id": 208,
      "content": "<0xCF>",
      "single_word": false,
      "lstrip": false,
      "rstrip": false,
      "normalized": false,
      "special": true
    },
    {
      "id": 209,
      "content": "<0xD0>",
      "single_word": false,
      "lstrip": false,
      "rstrip": false,
      "normalized": false,
      "special": true
    },
    {
      "id": 210,
      "content": "<0xD1>",
      "single_word": false,
      "lstrip": false,
      "rstrip": false,
      "normalized": false,
      "special": true
    },
    {
      "id": 211,
      "content": "<0xD2>",
      "single_word": false,
      "lstrip": false,
      "rstrip": false,
      "normalized": false,
      "special": true
    },
    {
      "id": 212,
      "content": "<0xD3>",
      "single_word": false,
      "lstrip": false,
      "rstrip": false,
      "normalized": false,
      "special": true
    },
    {
      "id": 213,
      "content": "<0xD4>",
      "single_word": false,
      "lstrip": false,
      "rstrip": false,
      "normalized": false,
      "special": true
    },
    {
      "id": 214,
      "content": "<0xD5>",
      "single_word": false,
      "lstrip": false,
      "rstrip": false,
      "normalized": false,
      "special": true
    },
    {
      "id": 215,
      "content": "<0xD6>",
      "single_word": false,
      "lstrip": false,
      "rstrip": false,
      "normalized": false,
      "special": true
    },
    {
      "id": 216,
      "content": "<0xD7>",
      "single_word": false,
      "lstrip": false,
      "rstrip": false,
      "normalized": false,
      "special": true
    },
    {
      "id": 217,
      "content": "<0xD8>",
      "single_word": false,
      "lstrip": false,
      "rstrip": false,
      "normalized": false,
      "special": true
    },
    {
      "id": 218,
      "content": "<0xD9>",
      "single_word": false,
      "lstrip": false,
      "rstrip": false,
      "normalized": false,
      "special": true
    },
    {
      "id": 219,
      "content": "<0xDA>",
      "single_word": false,
      "lstrip": false,
      "rstrip": false,
      "normalized": false,
      "special": true
    },
    {
      "id": 220,
      "content": "<0xDB>",
      "single_word": false,
      "lstrip": false,
      "rstrip": false,
      "normalized": false,
      "special": true
    },
    {
      "id": 221,
      "content": "<0xDC>",
      "single_word": false,
      "lstrip": false,
      "rstrip": false,
      "normalized": false,
      "special": true
    },
    {
      "id": 222,
      "content": "<0xDD>",
      "single_word": false,
      "lstrip": false,
      "rstrip": false,
      "normalized": false,
      "special": true
    },
    {
      "id": 223,
      "content": "<0xDE>",
      "single_word": false,
      "lstrip": false,
      "rstrip": false,
      "normalized": false,
      "special": true
    },
    {
      "id": 224,
      "content": "<0xDF>",
      "single_word": false,
      "lstrip": false,
      "rstrip": false,
      "normalized": false,
      "special": true
    },
    {
      "id": 225,
      "content": "<0xE0>",
      "single_word": false,
      "lstrip": false,
      "rstrip": false,
      "normalized": false,
      "special": true
    },
    {
      "id": 226,
      "content": "<0xE1>",
      "single_word": false,
      "lstrip": false,
      "rstrip": false,
      "normalized": false,
      "special": true
    },
    {
      "id": 227,
      "content": "<0xE2>",
      "single_word": false,
      "lstrip": false,
      "rstrip": false,
      "normalized": false,
      "special": true
    },
    {
      "id": 228,
      "content": "<0xE3>",
      "single_word": false,
      "lstrip": false,
      "rstrip": false,
      "normalized": false,
      "special": true
    },
    {
      "id": 229,
      "content": "<0xE4>",
      "single_word": false,
      "lstrip": false,
      "rstrip": false,
      "normalized": false,
      "special": true
    },
    {
      "id": 230,
      "content": "<0xE5>",
      "single_word": false,
      "lstrip": false,
      "rstrip": false,
      "normalized": false,
      "special": true
    },
    {
      "id": 231,
      "content": "<0xE6>",
      "single_word": false,
      "lstrip": false,
      "rstrip": false,
      "normalized": false,
      "special": true
    },
    {
      "id": 232,
      "content": "<0xE7>",
      "single_word": false,
      "lstrip": false,
      "rstrip": false,
      "normalized": false,
      "special": true
    },
    {
      "id": 233,
      "content": "<0xE8>",
      "single_word": false,
      "lstrip": false,
      "rstrip": false,
      "normalized": false,
      "special": true
    },
    {
      "id": 234,
      "content": "<0xE9>",
      "single_word": false,
      "lstrip": false,
      "rstrip": false,
      "normalized": false,
      "special": true
    },
    {
      "id": 235,
      "content": "<0xEA>",
      "single_word": false,
      "lstrip": false,
      "rstrip": false,
      "normalized": false,
      "special": true
    },
    {
      "id": 236,
      "content": "<0xEB>",
      "single_word": false,
      "lstrip": false,
      "rstrip": false,
      "normalized": false,
      "special": true
    },
    {
      "id": 237,
      "content": "<0xEC>",
      "single_word": false,
      "lstrip": false,
      "rstrip": false,
      "normalized": false,
      "special": true
    },
    {
      "id": 238,
      "content": "<0xED>",
      "single_word": false,
      "lstrip": false,
      "rstrip": false,
      "normalized": false,
      "special": true
    },
    {
      "id": 239,
      "content": "<0xEE>",
      "single_word": false,
      "lstrip": false,
      "rstrip": false,
      "normalized": false,
      "special": true
    },
    {
      "id": 240,
      "content": "<0xEF>",
      "single_word": false,
      "lstrip": false,
      "rstrip": false,
      "normalized": false,
      "special": true
    },
    {
      "id": 241,
      "content": "<0xF0>",
      "single_word": false,
      "lstrip": false,
      "rstrip": false,
      "normalized": false,
      "special": true
    },
    {
      "id": 242,
      "content": "<0xF1>",
      "single_word": false,
      "lstrip": false,
      "rstrip": false,
      "normalized": false,
      "special": true
    },
    {
      "id": 243,
      "content": "<0xF2>",
      "single_word": false,
      "lstrip": false,
      "rstrip": false,
      "normalized": false,
      "special": true
    },
    {
      "id": 244,
      "content": "<0xF3>",
      "single_word": false,
      "lstrip": false,
      "rstrip": false,
      "normalized": false,
      "special": true
    },
    {
      "id": 245,
      "content": "<0xF4>",
      "single_word": false,
      "lstrip": false,
      "rstrip": false,
      "normalized": false,
      "special": true
    },
    {
      "id": 246,
      "content": "<0xF5>",
      "single_word": false,
      "lstrip": false,
      "rstrip": false,
      "normalized": false,
      "special": true
    },
    {
      "id": 247,
      "content": "<0xF6>",
      "single_word": false,
      "lstrip": false,
      "rstrip": false,
      "normalized": false,
      "special": true
    },
    {
      "id": 248,
      "content": "<0xF7>",
      "single_word": false,
      "lstrip": false,
      "rstrip": false,
      "normalized": false,
      "special": true
    },
    {
      "id": 249,
      "content": "<0xF8>",
      "single_word": false,
      "lstrip": false,
      "rstrip": false,
      "normalized": false,
      "special": true
    },
    {
      "id": 250,
      "content": "<0xF9>",
      "single_word": false,
      "lstrip": false,
      "rstrip": false,
      "normalized": false,
      "special": true
    },
    {
      "id": 251,
      "content": "<0xFA>",
      "single_word": false,
      "lstrip": false,
      "rstrip": false,
      "normalized": false,
      "special": true
    },
    {
      "id": 252,
      "content": "<0xFB>",
      "single_word": false,
      "lstrip": false,
      "rstrip": false,
      "normalized": false,
      "special": true
    },
    {
      "id": 253,
      "content": "<0xFC>",
      "single_word": false,
      "lstrip": false,
      "rstrip": false,
      "normalized": false,
      "special": true
    },
    {
      "id": 254,
      "content": "<0xFD>",
      "single_word": false,
      "lstrip": false,
      "rstrip": false,
      "normalized": false,
      "special": true
    },
    {
      "id": 255,
      "content": "<0xFE>",
      "single_word": false,
      "lstrip": false,
      "rstrip": false,
      "normalized": false,
      "special": true
    },
    {
      "id": 256,
      "content": "<0xFF>",
      "single_word": false,
      "lstrip": false,
      "rstrip": false,
      "normalized": false,
      "special": true
    }
  ],
  "normalizer": null,
  "pre_tokenizer": {
    "type": "Sequence",
    "pretokenizers": [
      {
        "type": "Split",
        "pattern": {
          "Regex": "'(?:[sdmt]|ll|ve|re)| ?\\p{L}+| ?\\p{N}+| ?[^\\s\\p{L}\\p{N}]+|\\s+(?!\\S)|\\s+"
        },
        "behavior": "Isolated",
        "invert": false
      },
      {
        "type": "ByteLevel",
        "add_prefix_space": false,
        "trim_offsets": true,
        "use_regex": false
      }
    ]
  },
  "post_processor": {
    "type": "ByteLevel",
    "add_prefix_space": true,
    "trim_offsets": false,
    "use_regex": true
  },
  "decoder": {
    "type": "Sequence",
    "decoders": [
      {
        "type": "ByteLevel",
        "add_prefix_space": true,
        "trim_offsets": true,
        "use_regex": true
      },
      {
        "type": "ByteFallback"
      }
    ]
  },
  "model": {
    "type": "BPE",
    "dropout": null,
    "unk_token": null,
    "continuing_subword_prefix": null,
    "end_of_word_suffix": null,
    "fuse_unk": false,
    "byte_fallback": true,
    "ignore_merges": false,
    "vocab": {
      "<|endoftext|>": 0,
      "<0x00>": 1,
      "<0x01>": 2,
      "<0x02>": 3,
      "<0x03>": 4,
      "<0x04>": 5,
      "<0x05>": 6,
      "<0x06>": 7,
      "<0x07>": 8,
      "<0x08>": 9,
      "<0x09>": 10,
      "<0x0A>": 11,
      "<0x0B>": 12,
      "<0x0C>": 13,
      "<0x0D>": 14,
      "<0x0E>": 15,
      "<0x0F>": 16,
      "<0x10>": 17,
      "<0x11>": 18,
      "<0x12>": 19,
      "<0x13>": 20,
      "<0x14>": 21,
      "<0x15>": 22,
      "<0x16>": 23,
      "<0x17>": 24,
      "<0x18>": 25,
      "<0x19>": 26,
      "<0x1A>": 27,
      "<0x1B>": 28,
      "<0x1C>": 29,
      "<0x1D>": 30,
      "<0x1E>": 31,
      "<0x1F>": 32,
      "<0x20>": 33,
      "<0x21>": 34,
      "<0x22>": 35,
      "<0x23>": 36,
      "<0x24>": 37,
      "<0x25>": 38,
      "<0x26>": 39,
      "<0x27>": 40,
      "<0x28>": 41,
      "<0x29>": 42,
      "<0x2A>": 43,
      "<0x2B>": 44,
      "<0x2C>": 45,
      "<0x2D>": 46,
      "<0x2E>": 47,
      "<0x2F>": 48,
      "<0x30>": 49,
      "<0x31>": 50,
      "<0x32>": 51,
      "<0x33>": 52,
      "<0x34>": 53,
      "<0x35>": 54,
      "<0x36>": 55,
      "<0x37>": 56,
      "<0x38>": 57,
      "<0x39>": 58,
      "<0x3A>": 59,
      "<0x3B>": 60,
      "<0x3C>": 61,
      "<0x3D>": 62,
      "<0x3E>": 63,
      "<0x3F>": 64,
      "<0x40>": 65,
      "<0x41>": 66,
      "<0x42>": 67,
      "<0x43>": 68,
      "<0x44>": 69,
      "<0x45>": 70,
      "<0x46>": 71,
      "<0x47>": 72,
      "<0x48>": 73,
      "<0x49>": 74,
      "<0x4A>": 75,
      "<0x4B>": 76,
      "<0x4C>": 77,
      "<0x4D>": 78,
      "<0x4E>": 79,
      "<0x4F>": 80,
      "<0x50>": 81,
      "<0x51>": 82,
      "<0x52>": 83,
      "<0x53>": 84,
      "<0x54>": 85,
      "<0x55>": 86,
      "<0x56>": 87,
      "<0x57>": 88,
      "<0x58>": 89,
      "<0x59>": 90,
      "<0x5A>": 91,
      "<0x5B>": 92,
      "<0x5C>": 93,
      "<0x5D>": 94,
      "<0x5E>": 95,
      "<0x5F>": 96,
      "<0x60>": 97,
      "<0x61>": 98,
      "<0x62>": 99,
      "<0x63>": 100,
      "<0x64>": 101,
      "<0x65>": 102,
      "<0x66>": 103,
      "<0x67>": 104,
      "<0x68>": 105,
      "<0x69>": 106,
      "<0x6A>": 107,
      "<0x6B>": 108,
      "<0x6C>": 109,
      "<0x6D>": 110,
      "<0x6E>": 111,
      "<0x6F>": 112,
      "<0x70>": 113,
      "<0x71>": 114,
      "<0x72>": 115,
      "<0x73>": 116,
      "<0x74>": 117,
      "<0x75>": 118,
      "<0x76>": 119,
      "<0x77>": 120,
      "<0x78>": 121,
      "<0x79>": 122,
      "<0x7A>": 123,
      "<0x7B>": 124,
      "<0x7C>": 125,
      "<0x7D>": 126,
      "<0x7E>": 127,
      "<0x7F>": 128,
      "<0x80>": 129,
      "<0x81>": 130,
      "<0x82>": 131,
      "<0x83>": 132,
      "<0x84>": 133,
      "<0x85>": 134,
      "<0x86>": 135,
      "<0x87>": 136,
      "<0x88>": 137,
      "<0x89>": 138,
      "<0x8A>": 139,
      "<0x8B>": 140,
      "<0x8C>": 141,
      "<0x8D>": 142,
      "<0x8E>": 143,
      "<0x8F>": 144,
      "<0x90>": 145,
      "<0x91>": 146,
      "<0x92>": 147,
      "<0x93>": 148,
      "<0x94>": 149,
      "<0x95>": 150,
      "<0x96>": 151,
      "<0x97>": 152,
      "<0x98>": 153,
      "<0x99>": 154,
      "<0x9A>": 155,
      "<0x9B>": 156,
      "<0x9C>": 157,
      "<0x9D>": 158,
      "<0x9E>": 159,
      "<0x9F>": 160,
      "<0xA0>": 161,
      "<0xA1>": 162,
      "<0xA2>": 163,
      "<0xA3>": 164,
      "<0xA4>": 165,
      "<0xA5>": 166,
      "<0xA6>": 167,
      "<0xA7>": 168,
      "<0xA8>": 169,
      "<0xA9>": 170,
      "<0xAA>": 171,
      "<0xAB>": 172,
      "<0xAC>": 173,
      "<0xAD>": 174,
      "<0xAE>": 175,
      "<0xAF>": 176,
      "<0xB0>": 177,
      "<0xB1>": 178,
      "<0xB2>": 179,
      "<0xB3>": 180,
      "<0xB4>": 181,
      "<0xB5>": 182,
      "<0xB6>": 183,
      "<0xB7>": 184,
      "<0xB8>": 185,
      "<0xB9>": 186,
      "<0xBA>": 187,
      "<0xBB>": 188,
      "<0xBC>": 189,
      "<0xBD>": 190,
      "<0xBE>": 191,
      "<0xBF>": 192,
      "<0xC0>": 193,
      "<0xC1>": 194,
      "<0xC2>": 195,
      "<0xC3>": 196,
      "<0xC4>": 197,
      "<0xC5>": 198,
      "<0xC6>": 199,
      "<0xC7>": 200,
      "<0xC8>": 201,
      "<0xC9>": 202,
      "<0xCA>": 203,
      "<0xCB>": 204,
      "<0xCC>": 205,
      "<0xCD>": 206,
      "<0xCE>": 207,
      "<0xCF>": 208,
      "<0xD0>": 209,
      "<0xD1>": 210,
      "<0xD2>": 211,
      "<0xD3>": 212,
      "<0xD4>": 213,
      "<0xD5>": 214,
      "<0xD6>": 215,
      "<0xD7>": 216,
      "<0xD8>": 217,
      "<0xD9>": 218,
      "<0xDA>": 219,
      "<0xDB>": 220,
      "<0xDC>": 221,
      "<0xDD>": 222,
      "<0xDE>": 223,
      "<0xDF>": 224,
      "<0xE0>": 225,
      "<0xE1>": 226,
      "<0xE2>": 227,
      "<0xE3>": 228,
      "<0xE4>": 229,
      "<0xE5>": 230,
      "<0xE6>": 231,
      "<0xE7>": 232,
      "<0xE8>": 233,
      "<0xE9>": 234,
      "<0xEA>": 235,
      "<0xEB>": 236,
      "<0xEC>": 237,
      "<0xED>": 238,
      "<0xEE>": 239,
      "<0xEF>": 240,
      "<0xF0>": 241,
      "<0xF1>": 242,
      "<0xF2>": 243,
      "<0xF3>": 244,
      "<0xF4>": 245,
      "<0xF5>": 246,
      "<0xF6>": 247,
      "<0xF7>": 248,
      "<0xF8>": 249,
      "<0xF9>": 250,
      "<0xFA>": 251,
      "<0xFB>": 252,
      "<0xFC>": 253,
      "<0xFD>": 254,
      "<0xFE>": 255,
      "<0xFF>": 256,
      "!": 257,
      "\"": 258,
      "#": 259,
      "$": 260,
      "%": 261,
      "&": 262,
      "'": 263,
      "(": 264,
      ")": 265,
      "*": 266,
      "+": 267,
      ",": 268,
      "-": 269,
      ".": 270,
      "/": 271,
      "0": 272,
      "1": 273,
      "2": 274,
      "3": 275,
      "4": 276,
      "5": 277,
      "6": 278,
      "7": 279,
      "8": 280,
      "9": 281,
      ":": 282,
      ";": 283,
      "<": 284,
      "=": 285,
      ">": 286,
      "?": 287,
      "@": 288,
      "A": 289,
      "B": 290,
      "C": 291,
      "D": 292,
      "E": 293,
      "F": 294,
      "G": 295,
      "H": 296,
      "I": 297,
      "J": 298,
      "K": 299,
      "L": 300,
      "M": 301,
      "N": 302,
      "O": 303,
      "P": 304,
      "Q": 305,
      "R": 306,
      "S": 307,
      "T": 308,
      "U": 309,
      "V": 310,
      "W": 311,
      "X": 312,
      "Y": 313,
      "Z": 314,
      "[": 315,
      "\\": 316,
      "]": 317,
      "_": 318,
      "`": 319,
      "a": 320,
      "b": 321,
      "c": 322,
      "d": 323,
      "e": 324,
      "f": 325,
      "g": 326,
      "h": 327,
      "i": 328,
      "j": 329,
      "k": 330,
      "l": 331,
      "m": 332,
      "n": 333,
      "o": 334,
      "p": 335,
      "q": 336,
      "r": 337,
      "s": 338,
      "t": 339,
      "u": 340,
      "v": 341,
      "w": 342,
      "x": 343,
      "y": 344,
      "z": 345,
      "{": 346,
      "|": 347,
      "}": 348,
      "~": 349,
      "¡": 350,
      "¢": 351,
      "£": 352,
      "¤": 353,
      "¥": 354,
      "¦": 355,
      "§": 356,
      "¨": 357,
      "©": 358,
      "ª": 359,
      "«": 360,
      "¬": 361,
      "®": 362,
      "¯": 363,
      "°": 364,
      "±": 365,
      "³": 366,
      "´": 367,
      "µ": 368,
      "¶": 369,
      "·": 370,
      "¸": 371,
      "¹": 372,
      "º": 373,
      "»": 374,
      "¼": 375,
      "½": 376,
      "¾": 377,
      "¿": 378,
      "Â": 379,
      "Ã": 380,
      "Ä": 381,
      "Å": 382,
      "É": 383,
      "Ê": 384,
      "Ñ": 385,
      "Ò": 386,
      "á": 387,
      "â": 388,
      "ã": 389,
      "ä": 390,
      "å": 391,
      "æ": 392,
      "ç": 393,
      "è": 394,
      "é": 395,
      "î": 396,
      "ï": 397,
      "ð": 398,
      "ĉ": 399,
      "Ċ": 400,
      "Ġ": 401,
      "Ģ": 402,
      "ģ": 403,
      "Ĥ": 404,
      "ĥ": 405,
      "Ħ": 406,
      "ħ": 407,
      "Ĩ": 408,
      "ĩ": 409,
      "Ī": 410,
      "ī": 411,
      "Ĭ": 412,
      "ĭ": 413,
      "Į": 414,
      "į": 415,
      "İ": 416,
      "ı": 417,
      "Ĳ": 418,
      "ĳ": 419,
      "Ĵ": 420,
      "ĵ": 421,
      "Ķ": 422,
      "ķ": 423,
      "ĸ": 424,
      "ĺ": 425,
      "Ļ": 426,
      "ļ": 427,
      "Ľ": 428,
      "ľ": 429,
      "Ŀ": 430,
      "ŀ": 431,
      "Ł": 432,
      "ł": 433,
      "Ń": 434,
      "Ġt": 435,
      "he": 436,
      "Ġa": 437,
      "Ġs": 438,
      "nd": 439,
      "Ġw": 440,
      "Ġthe": 441,
      "ed": 442,
      "Ġb": 443,
      "Ġto": 444,
      "Ġand": 445,
      "Ġh": 446,
      "Ġf": 447,
      "in": 448,
      "ĠT": 449,
      "Ġwa": 450,
      "re": 451,
      "it": 452,
      "ou": 453,
      "Ġl": 454,
      "Ġd": 455,
      "Ġc": 456,
      "Ġp": 457,
      "ay": 458,
      "Ġm": 459,
      "er": 460,
      "Ġwas": 461,
      "om": 462,
      "ĠThe": 463,
      "Ġhe": 464,
      "is": 465,
      "ar": 466,
      "Ġn": 467,
      "im": 468,
      "on": 469,
      "Ġsa": 470,
      "id": 471,
      "ll": 472,
      "Ġha": 473,
      "Ġg": 474,
      "at": 475,
      "ĠS": 476,
      "ing": 477,
      "ot": 478,
      "en": 479,
      "an": 480,
      "le": 481,
      "or": 482,
      "end": 483,
      "ir": 484,
      "of": 485,
      "am": 486,
      "et": 487,
      "ĠH": 488,
      "Ġit": 489,
      "Ġth": 490,
      "ig": 491,
      "ĠThey": 492,
      "Ġin": 493,
      "il": 494,
      "Ġpl": 495,
      "ĠHe": 496,
      "Ġ\"": 497,
      "ow": 498,
      "ver": 499,
      "ri": 500,
      "ut": 501,
      "Ġbe": 502,
      "Ġu": 503,
      "Ġsaid": 504,
      "Ġplay": 505,
      "ith": 506,
      "Ġday": 507,
      "Ġwith": 508,
      "pp": 509,
      "On": 510,
      "Ġy": 511,
      "oo": 512,
      "ked": 513,
      "Ġr": 514,
      "Ġher": 515,
      "ex": 516,
      "ce": 517,
      "ĠI": 518,
      "ĠShe": 519,
      "ld": 520,
      "ĠTim": 521,
      "Ġhis": 522,
      "Ġst": 523,
      "ke": 524,
      "Ġbig": 525,
      "nt": 526,
      "ck": 527,
      "Ġyou": 528,
      "very": 529,
      "st": 530,
      "ve": 531,
      "Ġon": 532,
      "un": 533,
      "Ġhapp": 534,
      "riend": 535,
      "Ġfriend": 536,
      "all": 537,
      "ily": 538,
      "ext": 539,
      "ĠL": 540,
      "Ġthey": 541,
      "oft": 542,
      "Ġwe": 543,
      "Ġhad": 544,
      "Ġnot": 545,
      "Ġli": 546,
      "Ġup": 547,
      "her": 548,
      "Ġwant": 549,
      "Ġof": 550,
      "ad": 551,
      "itt": 552,
      "<|": 553,
      "|>": 554,
      "endoft": 555,
      "endoftext": 556,
      "se": 557,
      "ĠB": 558,
      "Ġdo": 559,
      "Ġe": 560,
      "Ġhappy": 561,
      "ent": 562,
      "Ġvery": 563,
      "ĠM": 564,
      "es": 565,
      "Ġthat": 566,
      "Ġsaw": 567,
      "One": 568,
      "'s": 569,
      "ould": 570,
      "Ġmom": 571,
      "Ġfor": 572,
      "Ġsh": 573,
      "ittle": 574,
      "Ġlittle": 575,
      "Ġshe": 576,
      "ch": 577,
      "ime": 578,
      "Ġnam": 579,
      ".\"": 580,
      "Ġtime": 581,
      "Ġk": 582,
      "ound": 583,
      "Ġso": 584,
      "Ġthere": 585,
      "Ġnamed": 586,
      "Ġsm": 587,
      "Ġbo": 588,
      "Ġwere": 589,
      "ĠLily": 590,
      "Ġne": 591,
      "Ġwanted": 592,
      "Ġbut": 593,
      "out": 594,
      "The": 595,
      "Ġfriends": 596,
      "ved": 597,
      "!\"": 598,
      "ht": 599,
      "ĠTom": 600,
      "ird": 601,
      "el": 602,
      "Ġbird": 603,
      "al": 604,
      "Ġan": 605,
      "ake": 606,
      "Ġtoo": 607,
      "ome": 608,
      "ĠIt": 609,
      "ug": 610,
      "ide": 611,
      "Ġwent": 612,
      "Ġwh": 613,
      "Ġhel": 614,
      "Once": 615,
      "Ġis": 616,
      "Ġall": 617,
      "Ġhelp": 618,
      "ue": 619,
      "Ġloo": 620,
      "Ġlo": 621,
      "ter": 622,
      "ĠA": 623,
      "Ġupon": 624,
      "ry": 625,
      "ore": 626,
      "ind": 627,
      "Ġfun": 628,
      "get": 629,
      "Ġtoy": 630,
      "ill": 631,
      "ame": 632,
      "Ġas": 633,
      "Ġat": 634,
      "ra": 635,
      "Ġj": 636,
      "Ġdid": 637,
      "gether": 638,
      "Ġre": 639,
      "ur": 640,
      "Ġo": 641,
      "Ġse": 642,
      "Ġtogether": 643,
      "ack": 644,
      "Ġcat": 645,
      "ly": 646,
      "Ġtre": 647,
      "ood": 648,
      "ic": 649,
      "ted": 650,
      "Ġdog": 651,
      "Ġcould": 652,
      "Ġcan": 653,
      "Ġtheir": 654,
      "ard": 655,
      "ec": 656,
      "ark": 657,
      "Ġgir": 658,
      "Ġplayed": 659,
      "Ġhim": 660,
      "Ġball": 661,
      "?\"": 662,
      "Ġgirl": 663,
      "Ġro": 664,
      "way": 665,
      "Ġgo": 666,
      "hed": 667,
      "my": 668,
      "Ġare": 669,
      "Ġout": 670,
      "Ġle": 671,
      "Ġfr": 672,
      "ain": 673,
      "Ġkn": 674,
      "hen": 675,
      "Ġthem": 676,
      "um": 677,
      "'t": 678,
      "ax": 679,
      "Ġsad": 680,
      "ul": 681,
      "Ġboy": 682,
      "Ġtree": 683,
      "other": 684,
      "Ġhave": 685,
      "Ġman": 686,
      "Ġcl": 687,
      "Ġloved": 688,
      "Ġlooked": 689,
      "oug": 690,
      "Ġfound": 691,
      "Ġsp": 692,
      "Ġstar": 693,
      "ĠSue": 694,
      "one": 695,
      "hing": 696,
      "Ġsc": 697,
      "Ġback": 698,
      "own": 699,
      "ĠMax": 700,
      "are": 701,
      "Ġlike": 702,
      "ful": 703,
      "side": 704,
      "Ġme": 705,
      "Ġbec": 706,
      "Ġpark": 707,
      "ight": 708,
      "ong": 709,
      "Ġcar": 710,
      "op": 711,
      "elt": 712,
      "ĠOne": 713,
      "Ġliked": 714,
      "Ġwould": 715,
      "Ġmake": 716,
      "round": 717,
      "Ġla": 718,
      "Ġfa": 719,
      "Ġfelt": 720,
      "You": 721,
      "ĠW": 722,
      "ell": 723,
      "Ġsee": 724,
      "ĠBut": 725,
      "omet": 726,
      "Ġasked": 727,
      "ag": 728,
      "Ġnew": 729,
      "Ġno": 730,
      "ice": 731,
      "ĠSam": 732,
      "ouse": 733,
      "Ġstarted": 734,
      "ared": 735,
      "Ġcame": 736,
      "ĠBen": 737,
      "Ġal": 738,
      "Ġother": 739,
      "ought": 740,
      "iled": 741,
      "Ġsomet": 742,
      "Ġag": 743,
      "Ġgood": 744,
      "Ġsmall": 745,
      "ss": 746,
      "Ġbr": 747,
      "Ġsmiled": 748,
      "Ġsay": 749,
      "ried": 750,
      "ade": 751,
      "ings": 752,
      "ĠĊ": 753,
      "ob": 754,
      "pot": 755,
      "Ġwor": 756,
      "Ġfind": 757,
      "ia": 758,
      "Ġaway": 759,
      "ty": 760,
      "Ġput": 761,
      "Ġex": 762,
      "Ġwhat": 763,
      "Ġsomething": 764,
      "Ġfrom": 765,
      "Ġmade": 766,
      "Ġthought": 767,
      "ened": 768,
      "Ġhome": 769,
      "Ġplaying": 770,
      "Ġco": 771,
      "ook": 772,
      "Ġevery": 773,
      "Ġwal": 774,
      "Ġmu": 775,
      "uc": 776,
      "ach": 777,
      "arn": 778,
      "ĠSpot": 779,
      "Ġran": 780,
      "ile": 781,
      "ĠF": 782,
      "ie": 783,
      "ĠJ": 784,
      "ave": 785,
      "Ġagain": 786,
      "Ġsome": 787,
      "Ġlaug": 788,
      "dd": 789,
      "Ġhouse": 790,
      "Ġdown": 791,
      "Ġfl": 792,
      "king": 793,
      "Ġtook": 794,
      "Ġscared": 795,
      "Ġpr": 796,
      "ny": 797,
      "ure": 798,
      "Ġtoys": 799,
      "Ġlearn": 800,
      "ĠYou": 801,
      "if": 802,
      "Ġwill": 803,
      "Ġbox": 804,
      "ick": 805,
      "ret": 806,
      "ab": 807,
      "ep": 808,
      "Ġmy": 809,
      "Ġaround": 810,
      "Ġthings": 811,
      "Ġyour": 812,
      "oud": 813,
      "Ġbl": 814,
      "uck": 815,
      "Ġwhen": 816,
      "ish": 817,
      "Ġlived": 818,
      "Ġfe": 819,
      "Ġthen": 820,
      "Ġsun": 821,
      "as": 822,
      "Ġsw": 823,
      ",\"": 824,
      "Ġch": 825,
      "us": 826,
      "pped": 827,
      "Ġab": 828,
      "ĠMia": 829,
      "ank": 830,
      "Ġget": 831,
      "ucy": 832,
      "Tim": 833,
      "ump": 834,
      "Th": 835,
      "Ġlot": 836,
      "ist": 837,
      "oth": 838,
      "Ġtried": 839,
      "ap": 840,
      "Ġknow": 841,
      "Ġsays": 842,
      "Ġgot": 843,
      "ited": 844,
      "Ġwho": 845,
      "Ġkne": 846,
      "ust": 847,
      "Ġmany": 848,
      "nder": 849,
      "Ġint": 850,
      "Ġabout": 851,
      "Lily": 852,
      "Ġpret": 853,
      "Ġdec": 854,
      "Ġany": 855,
      "Ġred": 856,
      "ĠD": 857,
      "ive": 858,
      "Ġknew": 859,
      "ace": 860,
      "ous": 861,
      "Ġmore": 862,
      "ise": 863,
      "Ġv": 864,
      "Ġcare": 865,
      "ally": 866,
      "Ġpic": 867,
      "au": 868,
      "qu": 869,
      "Ġhug": 870,
      "ĠLucy": 871,
      "Ġlearned": 872,
      "Ġpo": 873,
      "Ġwater": 874,
      "fter": 875,
      "Ġbecame": 876,
      "Ġbest": 877,
      "ause": 878,
      "Ġop": 879,
      "Ġgre": 880,
      "Ġexc": 881,
      "urp": 882,
      "ways": 883,
      "âĢ": 884,
      "Ġoutside": 885,
      "Ġlaughed": 886,
      "Ġlook": 887,
      "Ġalways": 888,
      "Ġdecid": 889,
      "Ġshow": 890,
      "Ġun": 891,
      "ant": 892,
      "ĠBob": 893,
      "Ġroom": 894,
      "fe": 895,
      "Ġdecided": 896,
      "Ġho": 897,
      "Ġbecause": 898,
      "Ġinto": 899,
      "ĠSo": 900,
      "Ġeat": 901,
      "ite": 902,
      "Ġjump": 903,
      "ĠAnd": 904,
      "Ġpe": 905,
      "Ġboth": 906,
      "ers": 907,
      "ĠMom": 908,
      "Ġdad": 909,
      "They": 910,
      "udd": 911,
      "Ġke": 912,
      "Ġone": 913,
      "nn": 914,
      "Ġthis": 915,
      "Ġexcited": 916,
      "Ġfast": 917,
      "Ġnice": 918,
      "ĠE": 919,
      "Ġfeel": 920,
      "Tom": 921,
      "Yes": 922,
      "Ġrun": 923,
      "Ġlong": 924,
      "Ġtold": 925,
      "Ġsk": 926,
      "Ġam": 927,
      "urpr": 928,
      "our": 929,
      "Ġinside": 930,
      "ull": 931,
      "Ġtr": 932,
      "Ġsurpr": 933,
      "Ġmo": 934,
      "ink": 935,
      "Ġpretty": 936,
      "iny": 937,
      "Ġsor": 938,
      "Wh": 939,
      "Ġtake": 940,
      "og": 941,
      "Ġsl": 942,
      "Ġeach": 943,
      "Ġgave": 944,
      "Ġmuch": 945,
      "Ġgra": 946,
      "lew": 947,
      "nna": 948,
      "Ġrock": 949,
      "Ġhow": 950,
      "Ġstr": 951,
      "ara": 952,
      "imal": 953,
      "Ġanimal": 954,
      "ged": 955,
      "Ġneed": 956,
      "Ġthan": 957,
      "But": 958,
      "ven": 959,
      "etter": 960,
      "Ġtow": 961,
      "Ġor": 962,
      "ĠC": 963,
      "Ġunder": 964,
      "ess": 965,
      "Ġold": 966,
      "Ġsorry": 967,
      "ge": 968,
      "ised": 969,
      "ro": 970,
      "urt": 971,
      "Ġcle": 972,
      "Ġfish": 973,
      "Ġwalked": 974,
      "Ġclo": 975,
      "and": 976,
      "Ġbear": 977,
      "ase": 978,
      "ast": 979,
      "Ġhand": 980,
      "urn": 981,
      "ĠWe": 982,
      "Ġkind": 983,
      "ĠHis": 984,
      "here": 985,
      "Ġhappened": 986,
      "Ġjust": 987,
      "Ġflow": 988,
      "Ġfood": 989,
      "Ġlist": 990,
      "Ġdidn": 991,
      "Ġte": 992,
      "Ġanimals": 993,
      "Ġhig": 994,
      "pl": 995,
      "Ġnear": 996,
      "Ġwat": 997,
      "Ġide": 998,
      "Ġtry": 999,
      "ched": 1000,
      "Ġsky": 1001,
      "ine": 1002,
      "Ġsn": 1003,
      "ving": 1004,
      "Ġfi": 1005,
      "rom": 1006,
      "Ġus": 1007,
      "Ġidea": 1008,
      "Ġbetter": 1009,
      "ĠAmy": 1010,
      "Ġbug": 1011,
      "Ġheard": 1012,
      "gry": 1013,
      "Ġits": 1014,
      "Ġtw": 1015,
      "Ġlet": 1016,
      "pec": 1017,
      "ate": 1018,
      "able": 1019,
      "ff": 1020,
      "Ġen": 1021,
      "Ġcareful": 1022,
      "Ġshare": 1023,
      "Ġif": 1024,
      "Thank": 1025,
      "Mom": 1026,
      "Ġfly": 1027,
      "Ġstor": 1028,
      "ial": 1029,
      "Ġflew": 1030,
      "more": 1031,
      "Ġanymore": 1032,
      "ĠTh": 1033,
      "Ġspec": 1034,
      "Ġspecial": 1035,
      "ion": 1036,
      "Ġcom": 1037,
      "Ġlots": 1038,
      "Ġnever": 1039,
      "Ġby": 1040,
      "lf": 1041,
      "ream": 1042,
      "Ġdan": 1043,
      "Ġbu": 1044,
      "Ġfo": 1045,
      "Ġwind": 1046,
      "Ġdon": 1047,
      "Ġtal": 1048,
      "Ġclean": 1049,
      "ort": 1050,
      "Ġgr": 1051,
      "Ġlove": 1052,
      "rm": 1053,
      "ber": 1054,
      "Ġend": 1055,
      "ĠThen": 1056,
      "ople": 1057,
      "Ġeven": 1058,
      "Ġmag": 1059,
      "Ġhard": 1060,
      "Ġshiny": 1061,
      "udden": 1062,
      "Ġfore": 1063,
      "Ġover": 1064,
      "Ġcake": 1065,
      "ak": 1066,
      "Ġbook": 1067,
      "Ġcol": 1068,
      "Ġturn": 1069,
      "Ġfam": 1070,
      "Ġbad": 1071,
      "Ġsafe": 1072,
      "Ġafter": 1073,
      "ady": 1074,
      "ĠAnna": 1075,
      "uddenly": 1076,
      "Ġpeople": 1077,
      "Ġproud": 1078,
      "ĠEvery": 1079,
      "Ġsurprised": 1080,
      "pected": 1081,
      "Let": 1082,
      "Ġhigh": 1083,
      "Ġcu": 1084,
      "Ġhurt": 1085,
      "Ġcome": 1086,
      "imb": 1087,
      "arden": 1088,
      "Ġdoor": 1089,
      "Ġgarden": 1090,
      "bb": 1091,
      "Ġground": 1092,
      "Ġopened": 1093,
      "Ġpicked": 1094,
      "Ġloud": 1095,
      "Ġclimb": 1096,
      "expected": 1097,
      "Ġunexpected": 1098,
      "Ġgl": 1099,
      "Ġche": 1100,
      "ild": 1101,
      "Ġim": 1102,
      "As": 1103,
      "Ġgive": 1104,
      "Ġway": 1105,
      "ail": 1106,
      "'m": 1107,
      "Ġthanked": 1108,
      "Ġcolor": 1109,
      "Ġblue": 1110,
      "Ġstill": 1111,
      "Ġever": 1112,
      "Ġhugged": 1113,
      "ĠFrom": 1114,
      "Ġcall": 1115,
      "Ġfar": 1116,
      "ip": 1117,
      "ĠHer": 1118,
      "ĠSara": 1119,
      "ĠWhen": 1120,
      "No": 1121,
      "Ġoff": 1122,
      "Ġmagic": 1123,
      "iz": 1124,
      "ough": 1125,
      "age": 1126,
      "ummy": 1127,
      "ĠK": 1128,
      "Ġjumped": 1129,
      "Ġshould": 1130,
      "Ġfamily": 1131,
      "Ġpar": 1132,
      "ool": 1133,
      "Ġkid": 1134,
      "Ġsmile": 1135,
      "hes": 1136,
      "uff": 1137,
      "Ġplace": 1138,
      "kay": 1139,
      "Ġwalk": 1140,
      "Ġnow": 1141,
      "ct": 1142,
      "ĠIn": 1143,
      "Ġgreat": 1144,
      "em": 1145,
      "Ġqu": 1146,
      "les": 1147,
      "Ġstrong": 1148,
      "Ġstay": 1149,
      "Ġunt": 1150,
      "Ġsto": 1151,
      "aut": 1152,
      "Ġforest": 1153,
      "ture": 1154,
      "ane": 1155,
      "Ġbra": 1156,
      "itty": 1157,
      "ĠP": 1158,
      "Ġfrog": 1159,
      "Ġbro": 1160,
      "Ġuntil": 1161,
      "oon": 1162,
      "Ġbeaut": 1163,
      "dy": 1164,
      "Ġsqu": 1165,
      "Ġstick": 1166,
      "Ġnext": 1167,
      "Ġboat": 1168,
      "lease": 1169,
      "ning": 1170,
      "Ġhappily": 1171,
      "Ġlisten": 1172,
      "aking": 1173,
      "Ġkids": 1174,
      "Ġtra": 1175,
      "ies": 1176,
      "iful": 1177,
      "Ġbeautiful": 1178,
      "Ġapp": 1179,
      "th": 1180,
      "Ġhelped": 1181,
      "Ġdra": 1182,
      "Ġshowed": 1183,
      "Ġclos": 1184,
      "be": 1185,
      "Ġimp": 1186,
      "Ġstory": 1187,
      "unny": 1188,
      "oy": 1189,
      "Ġwhile": 1190,
      "Ġtown": 1191,
      "rel": 1192,
      "pt": 1193,
      "Ġrain": 1194,
      "ress": 1195,
      "Ġpicture": 1196,
      "Ġbeing": 1197,
      "Ġrem": 1198,
      "Ġeveryone": 1199,
      "It": 1200,
      "ary": 1201,
      "ree": 1202,
      "Ġmor": 1203,
      "Ġhat": 1204,
      "Ġcalled": 1205,
      "Ġmet": 1206,
      "Ġstopped": 1207,
      "Ġad": 1208,
      "Ġgame": 1209,
      "Now": 1210,
      "He": 1211,
      "Ġwo": 1212,
      "Can": 1213,
      "Ġangry": 1214,
      "ger": 1215,
      "uffy": 1216,
      "Ġsoft": 1217,
      "Ġopen": 1218,
      "Ġtruck": 1219,
      "Ġkeep": 1220,
      "When": 1221,
      "Ġcry": 1222,
      "Ġyummy": 1223,
      "Ġlost": 1224,
      "Ġbed": 1225,
      "ĠLet": 1226,
      "ĠSally": 1227,
      "Ġwarm": 1228,
      "by": 1229,
      "vent": 1230,
      "Ġbrave": 1231,
      "Ġmouse": 1232,
      "ĠWh": 1233,
      "Ġate": 1234,
      "ĠKitty": 1235,
      "ished": 1236,
      "Ġde": 1237,
      "fore": 1238,
      "Ġdoll": 1239,
      "so": 1240,
      "Ġcouldn": 1241,
      "Ġwatch": 1242,
      "Ġleave": 1243,
      "Ġalso": 1244,
      "dded": 1245,
      "Ġfell": 1246,
      "Ġgreen": 1247,
      "Ġface": 1248,
      "Ġtwo": 1249,
      "gan": 1250,
      "iss": 1251,
      "Ġflowers": 1252,
      "bit": 1253,
      "What": 1254,
      "ĠR": 1255,
      "ble": 1256,
      "Ġnoise": 1257,
      "abbit": 1258,
      "irst": 1259,
      "owl": 1260,
      "Ġwhere": 1261,
      "az": 1262,
      "ock": 1263,
      "Ġsoon": 1264,
      "self": 1265,
      "Ġslide": 1266,
      "Ġrabbit": 1267,
      "Ġhole": 1268,
      "luffy": 1269,
      "Ġbefore": 1270,
      "irrel": 1271,
      "Ġpus": 1272,
      "ired": 1273,
      "Ġsat": 1274,
      "illy": 1275,
      "Ġhear": 1276,
      "Ġuse": 1277,
      "âĢĿ": 1278,
      "Hi": 1279,
      "Ġpa": 1280,
      "Ġkept": 1281,
      "âĢľ": 1282,
      "That": 1283,
      "Ġsquirrel": 1284,
      "ear": 1285,
      "Then": 1286,
      "ma": 1287,
      "Ġnodded": 1288,
      "Ġexpl": 1289,
      "Ġstore": 1290,
      "Ġcook": 1291,
      "Ġhands": 1292,
      "Look": 1293,
      "Ġbirds": 1294,
      "Ġpain": 1295,
      "Ġgoing": 1296,
      "Ġfunny": 1297,
      "Ġhaving": 1298,
      "day": 1299,
      "Ġsing": 1300,
      "aybe": 1301,
      "uch": 1302,
      "Ġey": 1303,
      "aug": 1304,
      "Ġcatch": 1305,
      "aught": 1306,
      "ĠCan": 1307,
      "ĠFluffy": 1308,
      "uit": 1309,
      "Ġyell": 1310,
      "Ġthink": 1311,
      "leep": 1312,
      "Ġcra": 1313,
      "Ġfin": 1314,
      "Ben": 1315,
      "Ġbre": 1316,
      "Ġfix": 1317,
      "Ġtired": 1318,
      "Ġbunny": 1319,
      "Ġused": 1320,
      "Ġlooking": 1321,
      "Ġbus": 1322,
      "ange": 1323,
      "air": 1324,
      "Ġwork": 1325,
      "Ġwr": 1326,
      "ting": 1327,
      "Ġour": 1328,
      "Ġpull": 1329,
      "We": 1330,
      "Ġthr": 1331,
      "thing": 1332,
      "ĠNow": 1333,
      "Ġwait": 1334,
      "Ġkit": 1335,
      "Ġsound": 1336,
      "Ġjo": 1337,
      "Ġhas": 1338,
      "ĠG": 1339,
      "Ġmean": 1340,
      "Ġpond": 1341,
      "ember": 1342,
      "Ġbeh": 1343,
      "Ġdr": 1344,
      "Ġsunny": 1345,
      "led": 1346,
      "Ġothers": 1347,
      "Ġask": 1348,
      "ng": 1349,
      "chen": 1350,
      "Ġkitchen": 1351,
      "Ġtalk": 1352,
      "Ġflo": 1353,
      "Ġdif": 1354,
      "rew": 1355,
      "Ġpie": 1356,
      "ĠJo": 1357,
      "Ġhead": 1358,
      "Ġreal": 1359,
      "Ġfirst": 1360,
      "Ġtri": 1361,
      "Ġmommy": 1362,
      "Ġeyes": 1363,
      "ello": 1364,
      "Ġimport": 1365,
      "Hello": 1366,
      "Ġfav": 1367,
      "ath": 1368,
      "joy": 1369,
      "Ġz": 1370,
      "Ġremember": 1371,
      "Ġright": 1372,
      "Ġflower": 1373,
      "Ġcon": 1374,
      "Ġmess": 1375,
      "Ġparty": 1376,
      "Ġcold": 1377,
      "ĠDo": 1378,
      "Ġvo": 1379,
      "Ġswe": 1380,
      "ious": 1381,
      "ft": 1382,
      "Ġsand": 1383,
      "ĠâĢľ": 1384,
      "ac": 1385,
      "orn": 1386,
      "Ġrace": 1387,
      "Ġcuri": 1388,
      "imes": 1389,
      "Ġimportant": 1390,
      "Ġduck": 1391,
      "Ġmoral": 1392,
      "Ġshared": 1393,
      "zy": 1394,
      "ount": 1395,
      "ĠJack": 1396,
      "Ġice": 1397,
      "Ġokay": 1398,
      "Ġadvent": 1399,
      "Ġworked": 1400,
      "llow": 1401,
      "At": 1402,
      "Ġenjoy": 1403,
      "Ġdress": 1404,
      "Ġbright": 1405,
      "Ġmaking": 1406,
      "Ġcurious": 1407,
      "Ġown": 1408,
      "Ġtall": 1409,
      "Ġdir": 1410,
      "Ġhop": 1411,
      "reed": 1412,
      "Ġhid": 1413,
      "Ġfavor": 1414,
      "Ġri": 1415,
      "hn": 1416,
      "Ġsleep": 1417,
      "Ġdis": 1418,
      "Wow": 1419,
      "Ġfavorite": 1420,
      "Ġthing": 1421,
      "Ġbegan": 1422,
      "Ġmon": 1423,
      "Ġbag": 1424,
      "Ġhill": 1425,
      "Don": 1426,
      "Ġcla": 1427,
      "Ġdraw": 1428,
      "Ġrest": 1429,
      "Ġhere": 1430,
      "Ġyard": 1431,
      "Ġtell": 1432,
      "ĠFin": 1433,
      "ster": 1434,
      "Ġwatched": 1435,
      "que": 1436,
      "Ġfollow": 1437,
      "Ġmove": 1438,
      "Ġbel": 1439,
      "ect": 1440,
      "Ġcut": 1441,
      "Ġnight": 1442,
      "Ġagreed": 1443,
      "Ġpick": 1444,
      "co": 1445,
      "Ġblock": 1446,
      "Ġhun": 1447,
      "aper": 1448,
      "lly": 1449,
      "Ġstop": 1450,
      "Ġbehind": 1451,
      "ĠThis": 1452,
      "Ġsurprise": 1453,
      "ied": 1454,
      "Ġsho": 1455,
      "Ġhot": 1456,
      "After": 1457,
      "Ġtable": 1458,
      "Ġgrass": 1459,
      "Ġworry": 1460,
      "Ġdark": 1461,
      "Ġtrees": 1462,
      "Ġvoice": 1463,
      "Ġwalking": 1464,
      "fere": 1465,
      "Ġfloor": 1466,
      "Ġfarm": 1467,
      "Ġlion": 1468,
      "Ġtop": 1469,
      "Ġdiffere": 1470,
      "Ġplease": 1471,
      "Ġru": 1472,
      "Ġsong": 1473,
      "Ġbutter": 1474,
      "Ġtail": 1475,
      "Ġsweet": 1476,
      "Max": 1477,
      "Ġshout": 1478,
      "Ġcolors": 1479,
      "Ġread": 1480,
      "ĠDad": 1481,
      "Ġlady": 1482,
      "Ġforg": 1483,
      "isy": 1484,
      "Ġleaves": 1485,
      "Ġcloser": 1486,
      "ign": 1487,
      "Ġcars": 1488,
      "Ġturned": 1489,
      "Ġneeded": 1490,
      "Ġtast": 1491,
      "Why": 1492,
      "aring": 1493,
      "Ġwood": 1494,
      "Ġcried": 1495,
      "Ġdifferent": 1496,
      "Ġlaugh": 1497,
      "Ġdel": 1498,
      "Ġpiece": 1499,
      "âĢĻ": 1500,
      "ered": 1501,
      "ĠMr": 1502,
      "Ġroll": 1503,
      "Ġadventure": 1504,
      "Ġfire": 1505,
      "Ġdoes": 1506,
      "ike": 1507,
      "Ġcr": 1508,
      "Ġhungry": 1509,
      "Ġhair": 1510,
      "ĠSuddenly": 1511,
      "Ġpaper": 1512,
      "Ġfeeling": 1513,
      "Ġyellow": 1514,
      "Ġfull": 1515,
      "bo": 1516,
      "Ġprin": 1517,
      "Sue": 1518,
      "Ġtouch": 1519,
      "ĠAs": 1520,
      "Anna": 1521,
      "Sam": 1522,
      "Ġwet": 1523,
      "Ġfriendly": 1524,
      "Ġper": 1525,
      "oom": 1526,
      "ken": 1527,
      "cked": 1528,
      "ached": 1529,
      "Ġswing": 1530,
      "Ġfruit": 1531,
      "ient": 1532,
      "Ġbroken": 1533,
      "Ġready": 1534,
      "bye": 1535,
      "ppy": 1536,
      "Ġprom": 1537,
      "ĠThat": 1538,
      "Ġanother": 1539,
      "Ġlight": 1540,
      "Ġpretend": 1541,
      "Ġdance": 1542,
      "ater": 1543,
      "Ġclimbed": 1544,
      "where": 1545,
      "Ġlistened": 1546,
      "ĠBobo": 1547,
      "Ġdanc": 1548,
      "Ġrunning": 1549,
      "Ġonly": 1550,
      "Ġplan": 1551,
      "Ġgone": 1552,
      "Ġswim": 1553,
      "bbed": 1554,
      "Suddenly": 1555,
      "sh": 1556,
      "Ġtrain": 1557,
      "ila": 1558,
      "ndma": 1559,
      "Sara": 1560,
      "ĠJane": 1561,
      "Ġclose": 1562,
      "av": 1563,
      "She": 1564,
      "Ġsmell": 1565,
      "aby": 1566,
      "Ġamaz": 1567,
      "So": 1568,
      "Ġhold": 1569,
      "Ġblocks": 1570,
      "Ġwonder": 1571,
      "ĠTimmy": 1572,
      "Ġrepl": 1573,
      "ĠAll": 1574,
      "Ġbutterf": 1575,
      "Ġsees": 1576,
      "Ġreached": 1577,
      "Ġwall": 1578,
      "Ġpu": 1579,
      "oney": 1580,
      "red": 1581,
      "Ġslow": 1582,
      "Ġhelping": 1583,
      "Ġdri": 1584,
      "Ġcream": 1585,
      "Ġcool": 1586,
      "Ġglad": 1587,
      "af": 1588,
      "Ġant": 1589,
      "Ġless": 1590,
      "Ġbeen": 1591,
      "Ġgoodbye": 1592,
      "Ġac": 1593,
      "Ġfight": 1594,
      "ather": 1595,
      "Mia": 1596,
      "Ġpushed": 1597,
      "iced": 1598,
      "Ġfair": 1599,
      "Ġmust": 1600,
      "Ġhide": 1601,
      "Ġmoment": 1602,
      "Ġwindow": 1603,
      "ĠO": 1604,
      "Ġsit": 1605,
      "Ġballoon": 1606,
      "Ġsnow": 1607,
      "Ġchild": 1608,
      "Ġexplore": 1609,
      "ĠEveryone": 1610,
      "Ġar": 1611,
      "Ġwished": 1612,
      "Ġbaby": 1613,
      "Ġdone": 1614,
      "Ġwag": 1615,
      "Ġste": 1616,
      "Ġbuy": 1617,
      "Ġstuck": 1618,
      "Ġperf": 1619,
      "Ġthank": 1620,
      "Ġmight": 1621,
      "icy": 1622,
      "Ġname": 1623,
      "ized": 1624,
      "Ġtrying": 1625,
      "Ġbit": 1626,
      "Ġcoming": 1627,
      "Ġbar": 1628,
      "Ġquick": 1629,
      "Ġfall": 1630,
      "Ġapple": 1631,
      "ash": 1632,
      "Ġscary": 1633,
      "Ġlooks": 1634,
      "Ġbuild": 1635,
      "Ġdoing": 1636,
      "Ġwin": 1637,
      "Ġunderst": 1638,
      "aisy": 1639,
      "Ġdin": 1640,
      "Ġdream": 1641,
      "Ġdirty": 1642,
      "Ġheld": 1643,
      "ames": 1644,
      "Ġbooks": 1645,
      "Ġmar": 1646,
      "In": 1647,
      "Ġbutterfly": 1648,
      "Ġleft": 1649,
      "Ġshouted": 1650,
      "Ġcount": 1651,
      "Ġreplied": 1652,
      "avy": 1653,
      "Ġreach": 1654,
      "Ġtiny": 1655,
      "Ġthrough": 1656,
      "ott": 1657,
      "Ġdro": 1658,
      "Ġwhy": 1659,
      "Ġair": 1660,
      "Ġbran": 1661,
      "Ġland": 1662,
      "key": 1663,
      "Ġthree": 1664,
      "Ġpulled": 1665,
      "Ġspl": 1666,
      "Ġgrow": 1667,
      "Ġtreat": 1668,
      "Ġbrother": 1669,
      "Ġwise": 1670,
      "Ġwoods": 1671,
      "Ġsure": 1672,
      "'re": 1673,
      "Ġchair": 1674,
      "ix": 1675,
      "Ġmat": 1676,
      "ins": 1677,
      "Ġseen": 1678,
      "Ġpink": 1679,
      "Ġclapped": 1680,
      "Ġplant": 1681,
      "ely": 1682,
      "Ġowl": 1683,
      "Ġcup": 1684,
      "ield": 1685,
      "Ġsometimes": 1686,
      "andy": 1687,
      "Ġfill": 1688,
      "Ġcloud": 1689,
      "ask": 1690,
      "Ġswam": 1691,
      "outh": 1692,
      "Ġjob": 1693,
      "Ġcolorful": 1694,
      "Ġremembered": 1695,
      "Ġbigger": 1696,
      "Ġnest": 1697,
      "Ġmouth": 1698,
      "pe": 1699,
      "Okay": 1700,
      "Ġlesson": 1701,
      "Ġjoin": 1702,
      "Ġcre": 1703,
      "ph": 1704,
      "ĠThere": 1705,
      "oup": 1706,
      "room": 1707,
      "art": 1708,
      "Ġwaved": 1709,
      "uddy": 1710,
      "Ġgrabbed": 1711,
      "Ġstayed": 1712,
      "Oh": 1713,
      "Ġpaint": 1714,
      "This": 1715,
      "Ġclot": 1716,
      "Ġcont": 1717,
      "Ġclothes": 1718,
      "ower": 1719,
      "ĠAfter": 1720,
      "Ġwaited": 1721,
      "Ġquickly": 1722,
      "cle": 1723,
      "Ġword": 1724,
      "Ġbroke": 1725,
      "ucky": 1726,
      "Ġgames": 1727,
      "Ġcast": 1728,
      "Ġblew": 1729,
      "Ġgent": 1730,
      "ĠMommy": 1731,
      "Ġenjoyed": 1732,
      "Ġnoticed": 1733,
      "Jo": 1734,
      "ries": 1735,
      "ation": 1736,
      "Ġset": 1737,
      "Ġlikes": 1738,
      "Ġpictures": 1739,
      "ton": 1740,
      "de": 1741,
      "Ġsea": 1742,
      "Ġheavy": 1743,
      "Ġmus": 1744,
      "Ġalone": 1745,
      "Ġgif": 1746,
      "asure": 1747,
      "Ġanything": 1748,
      "Ġspot": 1749,
      "Ġmiss": 1750,
      "Ġhopped": 1751,
      "Ġworld": 1752,
      "Ġturns": 1753,
      "orm": 1754,
      "Ġyear": 1755,
      "der": 1756,
      "Ġbott": 1757,
      "Ġpat": 1758,
      "Ġpot": 1759,
      "Ġpen": 1760,
      "lc": 1761,
      "Her": 1762,
      "Ġmix": 1763,
      "Ġarm": 1764,
      "Ġbike": 1765,
      "Ġtight": 1766,
      "Ġeverywhere": 1767,
      "Ġwon": 1768,
      "Lucy": 1769,
      "Ġtower": 1770,
      "Ġthrew": 1771,
      "Ġhimself": 1772,
      "Ġfollowed": 1773,
      "ĠBuddy": 1774,
      "Ġride": 1775,
      "man": 1776,
      "less": 1777,
      "Ġju": 1778,
      "Ġje": 1779,
      "amp": 1780,
      "Bob": 1781,
      "ape": 1782,
      "Ġcomp": 1783,
      "Ġkey": 1784,
      "row": 1785,
      "\".": 1786,
      "Ġwhite": 1787,
      "ctor": 1788,
      "Ġwrong": 1789,
      "ĠDaisy": 1790,
      "Ġmakes": 1791,
      "ĠWhat": 1792,
      "Ġbreak": 1793,
      "Ġblack": 1794,
      "arent": 1795,
      "ee": 1796,
      "ner": 1797,
      "Spot": 1798,
      "Do": 1799,
      "Ġdeep": 1800,
      "thy": 1801,
      "Ġmusic": 1802,
      "Ġpol": 1803,
      "Ġdelic": 1804,
      "cess": 1805,
      "ued": 1806,
      "Ġforgot": 1807,
      "Ġbee": 1808,
      "Ġparent": 1809,
      "Ġcastle": 1810,
      "ves": 1811,
      "olly": 1812,
      "Ġem": 1813,
      "iet": 1814,
      "Ġwear": 1815,
      "Ġhit": 1816,
      "Ġve": 1817,
      "ister": 1818,
      "oun": 1819,
      "Ġquiet": 1820,
      "Ġround": 1821,
      "ance": 1822,
      "Ġstu": 1823,
      "Ġdanced": 1824,
      "Ġvis": 1825,
      "ully": 1826,
      "Ġwants": 1827,
      "Ġleaf": 1828,
      "Ġmonster": 1829,
      "Ġnap": 1830,
      "ĠJohn": 1831,
      "Ġunderstand": 1832,
      "ang": 1833,
      "Ġbowl": 1834,
      "os": 1835,
      "rot": 1836,
      "ren": 1837,
      "Ġbor": 1838,
      "Ġtalked": 1839,
      "itten": 1840,
      "Ġdry": 1841,
      "Ġfaster": 1842,
      "Ġcookies": 1843,
      "Ġbrought": 1844,
      "fully": 1845,
      "Ġleg": 1846,
      "ross": 1847,
      "Ġmum": 1848,
      "zz": 1849,
      "Ġside": 1850,
      "ts": 1851,
      "From": 1852,
      "Ġsign": 1853,
      "ĠInside": 1854,
      "Ġsmart": 1855,
      "cy": 1856,
      "Ġrocks": 1857,
      "Ġsomeone": 1858,
      "His": 1859,
      "Ġpoin": 1860,
      "Ġsec": 1861,
      "Ġsharing": 1862,
      "Ġfox": 1863,
      "Ġwell": 1864,
      "Ġres": 1865,
      "Ġrel": 1866,
      "Ġhappen": 1867,
      "Ġbutton": 1868,
      "Ġbranch": 1869,
      "ĠLila": 1870,
      "Ġreally": 1871,
      "Ġfinished": 1872,
      "ence": 1873,
      "ards": 1874,
      "Ġdinner": 1875,
      "Ġsister": 1876,
      "Ġflying": 1877,
      "eddy": 1878,
      "Ġcontin": 1879,
      "Ġworried": 1880,
      "Ġele": 1881,
      "ĠTo": 1882,
      "Ġvisit": 1883,
      "ĠMaybe": 1884,
      "Ġbeach": 1885,
      "Ġque": 1886,
      "Ġsecret": 1887,
      "Ġel": 1888,
      "ĠSarah": 1889,
      "Ġking": 1890,
      "John": 1891,
      "gy": 1892,
      "Ġtoday": 1893,
      "Ġperfect": 1894,
      "Ġriver": 1895,
      "Ġeverything": 1896,
      "Ġsilly": 1897,
      "Ġshin": 1898,
      "ĠJoe": 1899,
      "Ġdanger": 1900,
      "ipp": 1901,
      "Ġchildren": 1902,
      "Ġgu": 1903,
      "ĠSoon": 1904,
      "Ġfield": 1905,
      "Ġfilled": 1906,
      "Ġfur": 1907,
      "Ġelse": 1908,
      "Ġsmiles": 1909,
      "Ġwelc": 1910,
      "ĠAt": 1911,
      "Ġwish": 1912,
      "ĠEm": 1913,
      "Ġsang": 1914,
      "While": 1915,
      "Ġgi": 1916,
      "ze": 1917,
      "Ġpudd": 1918,
      "Ġsnack": 1919,
      "Ġeating": 1920,
      "Ġrealized": 1921,
      "Ġpieces": 1922,
      "Ġpromised": 1923,
      "ord": 1924,
      "Ġspr": 1925,
      "Ġpig": 1926,
      "Ġfree": 1927,
      "Ġcontinued": 1928,
      "Ġbite": 1929,
      "ead": 1930,
      "Ġparents": 1931,
      "Ġcarefully": 1932,
      "ated": 1933,
      "itting": 1934,
      "Ġear": 1935,
      "Just": 1936,
      "Ġjar": 1937,
      "Maybe": 1938,
      "Ġcow": 1939,
      "Amy": 1940,
      "Ġblank": 1941,
      "Ġdrag": 1942,
      "stead": 1943,
      "Ġorange": 1944,
      "Ġmud": 1945,
      "Ġcrying": 1946,
      "Ġblanket": 1947,
      "Ġenough": 1948,
      "Ġrolled": 1949,
      "cket": 1950,
      "Ġsoup": 1951,
      "Ġsail": 1952,
      "Ġpurp": 1953,
      "imi": 1954,
      "Ġyes": 1955,
      "ale": 1956,
      "Ġdrink": 1957,
      "Ġsnake": 1958,
      "ses": 1959,
      "Ġboun": 1960,
      "Ġpet": 1961,
      "Ġcrab": 1962,
      "Ġlaughing": 1963,
      "Ġthrow": 1964,
      "Ġfairy": 1965,
      "Ġwords": 1966,
      "Ġamazing": 1967,
      "Ġbath": 1968,
      "ich": 1969,
      "Ġpurple": 1970,
      "ĠZ": 1971,
      "Ġwithout": 1972,
      "ire": 1973,
      "Ġbottle": 1974,
      "ĠBilly": 1975,
      "Ġgift": 1976,
      "Ġgrandma": 1977,
      "Fin": 1978,
      "used": 1979,
      "ons": 1980,
      "Ġpast": 1981,
      "Ġmoney": 1982,
      "iver": 1983,
      "fort": 1984,
      "Ġmail": 1985,
      "ĠGra": 1986,
      "Ġbarked": 1987,
      "Ġwagged": 1988,
      "Ġatt": 1989,
      "chool": 1990,
      "Ġmonkey": 1991,
      "Ġdoctor": 1992,
      "unch": 1993,
      "Ġbrown": 1994,
      "Ġmoved": 1995,
      "ises": 1996,
      "Ġasks": 1997,
      "Ġgetting": 1998,
      "Ġclosed": 1999,
      "Ġwhe": 2000,
      "Ġwelcome": 2001,
      "Ġsu": 2002,
      "Ġcandy": 2003,
      "Ġschool": 2004,
      "Ġmorning": 2005,
      "Ġowner": 2006,
      "gg": 2007,
      "Ġlon": 2008,
      "Ġmother": 2009,
      "Ġhigher": 2010,
      "Ġsitting": 2011,
      "Ġtreasure": 2012,
      ".âĢĿ": 2013,
      "Ġsmo": 2014,
      "!âĢĿ": 2015,
      "Ġdangerous": 2016,
      "Ġlonely": 2017,
      "ĠCh": 2018,
      "Ġliving": 2019,
      "Ġapples": 2020,
      "ush": 2021,
      "Ġshop": 2022,
      "ased": 2023,
      "Ġstrange": 2024,
      "vel": 2025,
      "Ġshining": 2026,
      "Ġroad": 2027,
      "ere": 2028,
      "ĠTommy": 2029,
      "Ġcreat": 2030,
      "una": 2031,
      "Ġpaw": 2032,
      "ey": 2033,
      "Ġra": 2034,
      "Ġshoes": 2035,
      "Ġpre": 2036,
      "ible": 2037,
      "Ġ-": 2038,
      "Ġstre": 2039,
      "Ġtalking": 2040,
      "althy": 2041,
      "Ġcaught": 2042,
      "Ġegg": 2043,
      "ol": 2044,
      "Ġpass": 2045,
      "me": 2046,
      "Ġlake": 2047,
      "Ġruns": 2048,
      "Ġbuck": 2049,
      "Ġletter": 2050,
      "Ġwings": 2051,
      "Ġchee": 2052,
      "fish": 2053,
      "Ġmad": 2054,
      "Ġfan": 2055,
      "asket": 2056,
      "Ġbasket": 2057,
      "ass": 2058,
      "Ġdragon": 2059,
      "app": 2060,
      "Mommy": 2061,
      "set": 2062,
      "cks": 2063,
      "Ġstone": 2064,
      "Ġthinks": 2065,
      "Ġstand": 2066,
      "Ġdelicious": 2067,
      "Ġnose": 2068,
      "Ġpuddle": 2069,
      "Ġtom": 2070,
      "ĠBl": 2071,
      "ĠMimi": 2072,
      "Ġbelie": 2073,
      "Ġfarmer": 2074,
      "Ġsame": 2075,
      "Ġyears": 2076,
      "board": 2077,
      "Ġteddy": 2078,
      "Ġbat": 2079,
      "isk": 2080,
      "itch": 2081,
      "Ġmine": 2082,
      "Ġsear": 2083,
      "Ġcoat": 2084,
      "ches": 2085,
      "igh": 2086,
      "Ġdays": 2087,
      "Ġbring": 2088,
      "Ġgentle": 2089,
      "Ġfit": 2090,
      "Ġstart": 2091,
      "Ġfinally": 2092,
      "Ġwhist": 2093,
      "Ġcray": 2094,
      "igg": 2095,
      "Ġscream": 2096,
      "Ġkite": 2097,
      "Ġpill": 2098,
      "phant": 2099,
      "arm": 2100,
      "Ġvill": 2101,
      "Ġcho": 2102,
      "Ġsinging": 2103,
      "ella": 2104,
      "sw": 2105,
      "ined": 2106,
      "Ġtasty": 2107,
      "Ġph": 2108,
      "Ġben": 2109,
      "Ġtrou": 2110,
      "Ġshell": 2111,
      "Ġherself": 2112,
      "Ġhoped": 2113,
      "Ġansw": 2114,
      "Ġwore": 2115,
      "Ġswings": 2116,
      "sy": 2117,
      "Ġhor": 2118,
      "Ġbelong": 2119,
      "Please": 2120,
      "Ġpush": 2121,
      "Ġbush": 2122,
      "iskers": 2123,
      "Ġcarrot": 2124,
      "Ġarri": 2125,
      "aughty": 2126,
      "Ġteach": 2127,
      "bow": 2128,
      "ract": 2129,
      "Ġnaughty": 2130,
      "Ġelephant": 2131,
      "Ġdropped": 2132,
      "Ġshap": 2133,
      "ier": 2134,
      "Ġcoll": 2135,
      "sc": 2136,
      "Ġteac": 2137,
      "emy": 2138,
      "Ġwoke": 2139,
      "ball": 2140,
      "Ġpile": 2141,
      "Ġhiding": 2142,
      "Ġcour": 2143,
      "isa": 2144,
      "erry": 2145,
      "Ġtouc": 2146,
      "Ġmin": 2147,
      "Ġpuppy": 2148,
      "'ll": 2149,
      "Ġseem": 2150,
      "llie": 2151,
      "Ġtwins": 2152,
      "ama": 2153,
      "Ġlunch": 2154,
      "Ġbow": 2155,
      "Ġsack": 2156,
      "Ġpers": 2157,
      "Ġcourse": 2158,
      "Ġcheered": 2159,
      "Ġshapes": 2160,
      "ĠJen": 2161,
      "Ġgrew": 2162,
      "fused": 2163,
      "Ġrope": 2164,
      "Ġvillage": 2165,
      "irth": 2166,
      "irthday": 2167,
      "Ġjuice": 2168,
      "ipped": 2169,
      "Ġrainbow": 2170,
      "Ġspin": 2171,
      "OK": 2172,
      "Ġshook": 2173,
      "Jack": 2174,
      "Ġspoon": 2175,
      "Ġbench": 2176,
      "Ġstreet": 2177,
      "Ġfence": 2178,
      "Ġcute": 2179,
      "ĠFred": 2180,
      "Ġrob": 2181,
      "Ġnut": 2182,
      "Ġcheese": 2183,
      "Ġprob": 2184,
      "Ġtouched": 2185,
      "idge": 2186,
      "col": 2187,
      "Ġjoy": 2188,
      "ĠWhiskers": 2189,
      "Ġarrived": 2190,
      "Ġseed": 2191,
      "Ġwar": 2192,
      "Ġteacher": 2193,
      "Ġcorn": 2194,
      "Good": 2195,
      "Ġable": 2196,
      "Ġforever": 2197,
      "Ġbell": 2198,
      "Ġfew": 2199,
      "Ġcarry": 2200,
      "Ġmost": 2201,
      "Ġplane": 2202,
      "ĠBlue": 2203,
      "lem": 2204,
      "Ġeas": 2205,
      "Ġsounds": 2206,
      "lla": 2207,
      "Ġdes": 2208,
      "Ġspo": 2209,
      "Ġproblem": 2210,
      "Ġbirthday": 2211,
      "Ġpower": 2212,
      "Ġinc": 2213,
      "umb": 2214,
      "br": 2215,
      "Ġbugs": 2216,
      "ilk": 2217,
      "Ġwonderful": 2218,
      "Ġdolls": 2219,
      "Ġbusy": 2220,
      "ato": 2221,
      "irp": 2222,
      "eb": 2223,
      "Ġwra": 2224,
      "Ġpromise": 2225,
      "ĠThank": 2226,
      "Ġfeels": 2227,
      "ian": 2228,
      "ĠEmma": 2229,
      "eter": 2230,
      "Ġbread": 2231,
      "Ġneck": 2232,
      "Finally": 2233,
      "Ġmilk": 2234,
      "Ġrobot": 2235,
      "Ġrec": 2236,
      "Ġshy": 2237,
      "ountain": 2238,
      "Ġkiss": 2239,
      "irt": 2240,
      "Ġheart": 2241,
      "Ġband": 2242,
      "Ġcave": 2243,
      "Ġpocket": 2244,
      "ub": 2245,
      "Ġhelpful": 2246,
      "gly": 2247,
      "Ġslowly": 2248,
      "Ġbelieve": 2249,
      "Ġshake": 2250,
      "umpy": 2251,
      "eared": 2252,
      "Ġpatient": 2253,
      "Ġpop": 2254,
      "Ġob": 2255,
      "arp": 2256,
      "Ġlive": 2257,
      "Ġstorm": 2258,
      "Ġholding": 2259,
      "Ġugly": 2260,
      "Ġtowards": 2261,
      "Ġupset": 2262,
      "Ġturt": 2263,
      "Ġshr": 2264,
      "adow": 2265,
      "Ġcover": 2266,
      "Ġkitten": 2267,
      "ost": 2268,
      "ĠRemy": 2269,
      "Ġsharp": 2270,
      "Ġdisapp": 2271,
      "Ġstories": 2272,
      "Ġsuc": 2273,
      "Ġhoney": 2274,
      "ove": 2275,
      "ĠBella": 2276,
      "read": 2277,
      "Ġnoises": 2278,
      "ĠLe": 2279,
      "Ġcir": 2280,
      "Ġballs": 2281,
      "Ġspark": 2282,
      "Ġgray": 2283,
      "Ġdist": 2284,
      "Ġdirt": 2285,
      "oggy": 2286,
      "Ġlate": 2287,
      "Ġdriver": 2288,
      "Ġseat": 2289,
      "Ġbucket": 2290,
      "Ġmeet": 2291,
      "Ġyoung": 2292,
      "Ġamazed": 2293,
      "Ġturtle": 2294,
      "alm": 2295,
      "Ġspid": 2296,
      "Ġtreats": 2297,
      "Ġmagical": 2298,
      "unt": 2299,
      "ator": 2300,
      "Ġglow": 2301,
      "Ġseek": 2302,
      "Ġzoom": 2303,
      "Ġlem": 2304,
      "Ġsandw": 2305,
      "fortable": 2306,
      "umber": 2307,
      "Ġtrip": 2308,
      "Ġmist": 2309,
      "ourn": 2310,
      "Ġsplas": 2311,
      "Ġmark": 2312,
      "Ġjourn": 2313,
      "Ġfold": 2314,
      "Ġmach": 2315,
      "Ġpuzz": 2316,
      "Ġpart": 2317,
      "ling": 2318,
      "Ġhorse": 2319,
      "Ġorgan": 2320,
      "Ġwild": 2321,
      "Ġprincess": 2322,
      "pping": 2323,
      "oose": 2324,
      "Ġcookie": 2325,
      "Sure": 2326,
      "ens": 2327,
      "Ġhugs": 2328,
      "ĠMark": 2329,
      "Ġtaking": 2330,
      "ung": 2331,
      "Ġwheel": 2332,
      "epend": 2333,
      "Ġcloth": 2334,
      "ĠLisa": 2335,
      "Ġsug": 2336,
      "Ġinstead": 2337,
      "Ġbubb": 2338,
      "Ġstring": 2339,
      "Ġnet": 2340,
      "Ġdrove": 2341,
      "iling": 2342,
      "Ġrude": 2343,
      "Ġhuge": 2344,
      "ĠJim": 2345,
      "Ġcoin": 2346,
      "Ġstars": 2347,
      "Ġfighting": 2348,
      "Be": 2349,
      "Ġspicy": 2350,
      "Ġlucky": 2351,
      "Of": 2352,
      "Ġcraw": 2353,
      "Hey": 2354,
      "Ġbone": 2355,
      "Ġinv": 2356,
      "ĠGrandma": 2357,
      "ors": 2358,
      "not": 2359,
      "Ġca": 2360,
      "pper": 2361,
      "Ġforget": 2362,
      "up": 2363,
      "Ġdi": 2364,
      "aur": 2365,
      "Ġsal": 2366,
      "ĠFinally": 2367,
      "Ġcannot": 2368,
      "Ġwhistle": 2369,
      "Ġcard": 2370,
      "Ġsick": 2371,
      "Ġpath": 2372,
      "Ġcou": 2373,
      "Ġspider": 2374,
      "Ġwide": 2375,
      "Lila": 2376,
      "Ġfoot": 2377,
      "Ġsnowman": 2378,
      "Ġlife": 2379,
      "Ġsongs": 2380,
      "Ġpillow": 2381,
      "ize": 2382,
      "ular": 2383,
      "ĠJust": 2384,
      "Later": 2385,
      "est": 2386,
      "ĠAnn": 2387,
      "ert": 2388,
      "Ġfixed": 2389,
      "Ġgiant": 2390,
      "oph": 2391,
      "rill": 2392,
      "Ġnod": 2393,
      "Ġboss": 2394,
      "Ġlast": 2395,
      "Ġcomes": 2396,
      "Ġjoke": 2397,
      "Ġmoon": 2398,
      "Ġtaste": 2399,
      "den": 2400,
      "Ġmachine": 2401,
      "Ġgrumpy": 2402,
      "Ġwave": 2403,
      "Ġthin": 2404,
      "Ġdrive": 2405,
      "Ġcart": 2406,
      "Ġash": 2407,
      "Ġser": 2408,
      "Ġgrab": 2409,
      "Ġpeace": 2410,
      "lower": 2411,
      "Ġdaddy": 2412,
      "ĠOn": 2413,
      "ĠLeo": 2414,
      "ery": 2415,
      "Ġsel": 2416,
      "Ġshelf": 2417,
      "Ġhidden": 2418,
      "erest": 2419,
      "Ġsuddenly": 2420,
      "Ġwasn": 2421,
      "Ġwrite": 2422,
      "Ġlanded": 2423,
      "Ġconfused": 2424,
      "Ġring": 2425,
      "Ġchange": 2426,
      "Ġworm": 2427,
      "oop": 2428,
      "Ġinterest": 2429,
      "Ġchased": 2430,
      "Ġfruits": 2431,
      "Ġsour": 2432,
      "ity": 2433,
      "Ġmyster": 2434,
      "Ġbark": 2435,
      "Ġrad": 2436,
      "Ġsmooth": 2437,
      "ĠCome": 2438,
      "Ġadventures": 2439,
      "Ġval": 2440,
      "Ġstepped": 2441,
      "Ġfle": 2442,
      "ope": 2443,
      "Ġoven": 2444,
      "Ġtakes": 2445,
      "Ġmissed": 2446,
      "Ġselfish": 2447,
      "kin": 2448,
      "Ġsheep": 2449,
      "Ġmessy": 2450,
      "Ġacross": 2451,
      "To": 2452,
      "Ġent": 2453,
      "Ġexp": 2454,
      "to": 2455,
      "Ġce": 2456,
      "Ġlater": 2457,
      "elly": 2458,
      "ĠN": 2459,
      "ife": 2460,
      "Ġsticks": 2461,
      "Ġtie": 2462,
      "St": 2463,
      "ever": 2464,
      "ĠLuna": 2465,
      "Ġbought": 2466,
      "Ġstep": 2467,
      "Ġdrew": 2468,
      "Ġtea": 2469,
      "pect": 2470,
      "Ġban": 2471,
      "irpy": 2472,
      "box": 2473,
      "?âĢĿ": 2474,
      "Ġwash": 2475,
      "Ġlay": 2476,
      "Ġpour": 2477,
      "Ġbeak": 2478,
      "ose": 2479,
      "Ġjog": 2480,
      "Ġgrate": 2481,
      "Ġducks": 2482,
      "Ġspe": 2483,
      "Ġlegs": 2484,
      "ugg": 2485,
      "Ġfil": 2486,
      "ĠBu": 2487,
      "Ġemp": 2488,
      "mer": 2489,
      "Ġhope": 2490,
      "Ġempty": 2491,
      "Ġslid": 2492,
      "Ġfeather": 2493,
      "Ġsleepy": 2494,
      "Ġdrum": 2495,
      "amed": 2496,
      "ars": 2497,
      "eth": 2498,
      "Ġzoo": 2499,
      "Ġpan": 2500,
      "Ġphone": 2501,
      "Ġgrateful": 2502,
      "Ġfing": 2503,
      "ions": 2504,
      "Ġlemon": 2505,
      "let": 2506,
      "ĠCat": 2507,
      "Ġclever": 2508,
      "ĠMolly": 2509,
      "Ġsmelly": 2510,
      "Ġimag": 2511,
      "Ġsplash": 2512,
      "Ġinteresting": 2513,
      "ĠJill": 2514,
      "Ġsave": 2515,
      "Ġchick": 2516,
      "Ġcalm": 2517,
      "Ġmed": 2518,
      "Ġwatching": 2519,
      "Soon": 2520,
      "izzy": 2521,
      "izz": 2522,
      "Ġplate": 2523,
      "Ġign": 2524,
      "yard": 2525,
      "Ġclouds": 2526,
      "Ġbanan": 2527,
      "Ġline": 2528,
      "Ġfaces": 2529,
      "Ġba": 2530,
      "Ġact": 2531,
      "Ġthough": 2532,
      "Ġwolf": 2533,
      "Ġbackyard": 2534,
      "wel": 2535,
      "Ġseemed": 2536,
      "Ġdogs": 2537,
      "Ġspray": 2538,
      "Come": 2539,
      "Ġprot": 2540,
      "Ġwhole": 2541,
      "Ġmot": 2542,
      "Ġfancy": 2543,
      "ĠDaddy": 2544,
      "Ġquest": 2545,
      "Ġarms": 2546,
      "Ġpuzzle": 2547,
      "Ġhealthy": 2548,
      "Ġsupp": 2549,
      "ward": 2550,
      "Ġfinish": 2551,
      "erly": 2552,
      "Ġalong": 2553,
      "llo": 2554,
      "Ġrocket": 2555,
      "Ġexplain": 2556,
      "dge": 2557,
      "Ġeasy": 2558,
      "Ġjewel": 2559,
      "ont": 2560,
      "Ġpract": 2561,
      "Ġjelly": 2562,
      "ĠChirpy": 2563,
      "Ġtid": 2564,
      "Ġfake": 2565,
      "Ġcrayons": 2566,
      "Ġwondered": 2567,
      "Ġmaybe": 2568,
      "Ġscar": 2569,
      "Ġship": 2570,
      "Ġnothing": 2571,
      "onest": 2572,
      "Ġemb": 2573,
      "iger": 2574,
      "Ġpool": 2575,
      "Ġlonger": 2576,
      "Ġanyone": 2577,
      "ĠBe": 2578,
      "ĠJerry": 2579,
      "ually": 2580,
      "Ġfront": 2581,
      "Ġworking": 2582,
      "Ġgives": 2583,
      "irr": 2584,
      "Ġpack": 2585,
      "Ġsuch": 2586,
      "ĠBunny": 2587,
      "ocked": 2588,
      "ment": 2589,
      "Ġbossy": 2590,
      "ĠDoggy": 2591,
      "Ġtrouble": 2592,
      "Ġsmelled": 2593,
      "Ġsaved": 2594,
      "Ġpin": 2595,
      "rass": 2596,
      "Ġneigh": 2597,
      "arrass": 2598,
      "iting": 2599,
      "Ġhonest": 2600,
      "Ġav": 2601,
      "arge": 2602,
      "Ġembarrass": 2603,
      "Ġlift": 2604,
      "Ġvan": 2605,
      "Ġforgive": 2606,
      "Ġtidy": 2607,
      "Ġweak": 2608,
      "urse": 2609,
      "Ġputs": 2610,
      "unk": 2611,
      "Ġkick": 2612,
      "Ġshirt": 2613,
      "ĠWith": 2614,
      "Ġmind": 2615,
      "ĠOllie": 2616,
      "Ġneighb": 2617,
      "Ġplants": 2618,
      "Ġsol": 2619,
      "ĠMomo": 2620,
      "Ġgently": 2621,
      "Ġcozy": 2622,
      "orrow": 2623,
      "ming": 2624,
      "Ġexplor": 2625,
      "sp": 2626,
      "Ġmistake": 2627,
      "Ġyog": 2628,
      "oc": 2629,
      "oomy": 2630,
      "Ġpointed": 2631,
      "Ġlad": 2632,
      "Ġaf": 2633,
      "Ġstood": 2634,
      "ork": 2635,
      "Ġonto": 2636,
      "Ġjumping": 2637,
      "Ġwaiting": 2638,
      "Ġprince": 2639,
      "Ġcross": 2640,
      "Ġlock": 2641,
      "Ġcheer": 2642,
      "Ġqueen": 2643,
      "ĠWhy": 2644,
      "ĠMary": 2645,
      "Ġwing": 2646,
      "ones": 2647,
      "we": 2648,
      "Ġlarge": 2649,
      "Ġlovely": 2650,
      "ult": 2651,
      "Ġsur": 2652,
      "Ġret": 2653,
      "And": 2654,
      "Ġdeer": 2655,
      "Ġchew": 2656,
      "Ġcouch": 2657,
      "Ġbal": 2658,
      "Ġstret": 2659,
      "aughter": 2660,
      "era": 2661,
      "ĠTheir": 2662,
      "Ġplaces": 2663,
      "ĠMy": 2664,
      "Ġladder": 2665,
      "Ġreturn": 2666,
      "raid": 2667,
      "Ġants": 2668,
      "Ġdish": 2669,
      "Ġafraid": 2670,
      "Ġcleaned": 2671,
      "Ġtomorrow": 2672,
      "Ġbuilding": 2673,
      "Ġsandwich": 2674,
      "Ġperson": 2675,
      "Sally": 2676,
      "ek": 2677,
      "ned": 2678,
      "Ġpretended": 2679,
      "Ġbounce": 2680,
      "Ġwip": 2681,
      "gest": 2682,
      "Ġmatch": 2683,
      "Ġrich": 2684,
      "uce": 2685,
      "Ġpizz": 2686,
      "Ġgather": 2687,
      "Ġsearch": 2688,
      "Ġboring": 2689,
      "oman": 2690,
      "ĠSomet": 2691,
      "Ġteeth": 2692,
      "Ġhum": 2693,
      "Kitty": 2694,
      "My": 2695,
      "aced": 2696,
      "Ġdaughter": 2697,
      "Ġwoman": 2698,
      "Ġscarf": 2699,
      "Ġgoes": 2700,
      "ĠTogether": 2701,
      "Ġlaw": 2702,
      "Ġstra": 2703,
      "Ġswimming": 2704,
      "Ġfurry": 2705,
      "Ġsplashed": 2706,
      "Ġpri": 2707,
      "Ġloves": 2708,
      "Ġtrue": 2709,
      "Ġscreamed": 2710,
      "Ġlazy": 2711,
      "Ġgen": 2712,
      "Ġanswer": 2713,
      "Ġnumber": 2714,
      "Ġeag": 2715,
      "Ġashamed": 2716,
      "Ġpizza": 2717,
      "aw": 2718,
      "Ġappeared": 2719,
      "Ġfear": 2720,
      "Ġnearby": 2721,
      "Ġpowerful": 2722,
      "Ġflag": 2723,
      "ĠSt": 2724,
      "Ġhang": 2725,
      "vous": 2726,
      "Ġclown": 2727,
      "Ġchase": 2728,
      "Ġmotor": 2729,
      "Ġwand": 2730,
      "ĠTV": 2731,
      "Ġrub": 2732,
      "Ġsuccess": 2733,
      "Ġchocol": 2734,
      "ĠIf": 2735,
      "Ġcreative": 2736,
      "Ġtrust": 2737,
      "Ġwearing": 2738,
      "Ġnoisy": 2739,
      "Ġmatter": 2740,
      "pa": 2741,
      "Ġdig": 2742,
      "Ġhello": 2743,
      "Ġner": 2744,
      "Ġtool": 2745,
      "Ġsaf": 2746,
      "ĠBird": 2747,
      "ado": 2748,
      "Ġnervous": 2749,
      "elp": 2750,
      "Ġtest": 2751,
      "Ġsmiling": 2752,
      "Ġsold": 2753,
      "icked": 2754,
      "oppy": 2755,
      "osaur": 2756,
      "Ġcircle": 2757,
      "mb": 2758,
      "Ġmap": 2759,
      "Ġdrank": 2760,
      "Ġclass": 2761,
      "Ġtries": 2762,
      "Ġchocolate": 2763,
      "ĠPlease": 2764,
      "Ġimpress": 2765,
      "Ġknee": 2766,
      "Ġgener": 2767,
      "Ġdinosaur": 2768,
      "Ġpolite": 2769,
      "Ġmirr": 2770,
      "ĠBobby": 2771,
      "ĠTiny": 2772,
      "Ġballoons": 2773,
      "Ġgold": 2774,
      "Ġrare": 2775,
      "Ġprotect": 2776,
      "Ġcand": 2777,
      "Stop": 2778,
      "ĠGo": 2779,
      "Ġcarried": 2780,
      "ensive": 2781,
      "Ġap": 2782,
      "Ġshadow": 2783,
      "Ġmirror": 2784,
      "ĠDon": 2785,
      "Ġbald": 2786,
      "Ġgun": 2787,
      "ina": 2788,
      "Ġexpensive": 2789,
      "Ġreg": 2790,
      "iff": 2791,
      "Ġmysterious": 2792,
      "ĠSp": 2793,
      "Ġpump": 2794,
      "Ġnote": 2795,
      "Ġhero": 2796,
      "Ġmarch": 2797,
      "Ġhar": 2798,
      "arl": 2799,
      "Ġicy": 2800,
      "Ġrespect": 2801,
      "Ġweird": 2802,
      "Ġsnee": 2803,
      "Ġcri": 2804,
      "Ġgate": 2805,
      "Ġsoap": 2806,
      "rag": 2807,
      "ute": 2808,
      "issors": 2809,
      "Ġthese": 2810,
      "Ġpoor": 2811,
      "Ġtowel": 2812,
      "Ġwhale": 2813,
      "Ġfeet": 2814,
      "Ġtape": 2815,
      "Ġdizzy": 2816,
      "itter": 2817,
      "Ġgenerous": 2818,
      "ndpa": 2819,
      "Ġpres": 2820,
      "ĠBenny": 2821,
      "nic": 2822,
      "Ġdisco": 2823,
      "Help": 2824,
      "ventually": 2825,
      "Ġpicnic": 2826,
      "Ġmic": 2827,
      "Ġlead": 2828,
      "Ġsque": 2829,
      "Ġembarrassed": 2830,
      "Ġjourney": 2831,
      "Ġsugar": 2832,
      "isp": 2833,
      "scape": 2834,
      "Ġboot": 2835,
      "Ġtent": 2836,
      "Ġpeaceful": 2837,
      "Ġfat": 2838,
      "ĠBear": 2839,
      "Ġscissors": 2840,
      "Ġtasted": 2841,
      "Ġyelled": 2842,
      "Tommy": 2843,
      "Ġtick": 2844,
      "Ġmel": 2845,
      "Ġbrush": 2846,
      "Ġdancing": 2847,
      "ness": 2848,
      "Ġglue": 2849,
      "Ġhur": 2850,
      "Ġrough": 2851,
      "Ġclap": 2852,
      "Ġbridge": 2853,
      "ote": 2854,
      "Ġdecor": 2855,
      "Ġcloset": 2856,
      "Ġcrown": 2857,
      "Ġstir": 2858,
      "ual": 2859,
      "imp": 2860,
      "Ġprint": 2861,
      "ĠSometimes": 2862,
      "owed": 2863,
      "airs": 2864,
      "ĠHow": 2865,
      "ume": 2866,
      "Ġcap": 2867,
      "Ġlamp": 2868,
      "Ġvase": 2869,
      "Ġscare": 2870,
      "lebr": 2871,
      "Ġrelie": 2872,
      "lves": 2873,
      "any": 2874,
      "Ġeld": 2875,
      "Ġtele": 2876,
      "Ġcelebr": 2877,
      "Ġgigg": 2878,
      "Ġwhisp": 2879,
      "Ġlog": 2880,
      "Ġblow": 2881,
      "Ġpainted": 2882,
      "Ġsco": 2883,
      "ĠDucky": 2884,
      "Ġpay": 2885,
      "erries": 2886,
      "Ġwis": 2887,
      "Ġberries": 2888,
      "Ġmixed": 2889,
      "Ġspread": 2890,
      "Ġwouldn": 2891,
      "Ġcage": 2892,
      "Ġbake": 2893,
      "rob": 2894,
      "getable": 2895,
      "Ġmountain": 2896,
      "Ġadm": 2897,
      "Ġdrawing": 2898,
      "Ġbecome": 2899,
      "Ġfamous": 2900,
      "Ġbean": 2901,
      "Ġknocked": 2902,
      "Ġnorm": 2903,
      "Ġvegetable": 2904,
      "asp": 2905,
      "Ġkicked": 2906,
      "ustr": 2907,
      "Ġshark": 2908,
      "ser": 2909,
      "Ġincred": 2910,
      "Ġlose": 2911,
      "Ġnormal": 2912,
      "Ġwrap": 2913,
      "ced": 2914,
      "Ġgroup": 2915,
      "Ġthick": 2916,
      "Ġ3": 2917,
      "Ġfine": 2918,
      "Ġglass": 2919,
      "Ġignor": 2920,
      "Ġclock": 2921,
      "Ġteam": 2922,
      "Ġelderly": 2923,
      "Ġclear": 2924,
      "Ġcorner": 2925,
      "Ġfrustr": 2926,
      "Ġmighty": 2927,
      "robe": 2928,
      "Ġcone": 2929,
      "Ġincredible": 2930,
      "ĠBr": 2931,
      "ighed": 2932,
      "Dad": 2933,
      "Ġmoms": 2934,
      "Ġbalance": 2935,
      "Ġsock": 2936,
      "Ġspace": 2937,
      "Ġjam": 2938,
      "ragile": 2939,
      "Ġfright": 2940,
      "Ġbranches": 2941,
      "Ġorganized": 2942,
      "Ġroar": 2943,
      "port": 2944,
      "Ġsword": 2945,
      "ĠMama": 2946,
      "alous": 2947,
      "Ġguess": 2948,
      "Ġfool": 2949,
      "Ġsell": 2950,
      "Ġfeed": 2951,
      "ĠSome": 2952,
      "Ġwhich": 2953,
      "Ġhorn": 2954,
      "Ġpresent": 2955,
      "Ġjealous": 2956,
      "Ġyarn": 2957,
      "ony": 2958,
      "Ġfragile": 2959,
      "Ġburn": 2960,
      "Ġunderstood": 2961,
      "Ġmis": 2962,
      "Ġstubb": 2963,
      "Ġter": 2964,
      "Ġfrustrated": 2965,
      "Where": 2966,
      "ray": 2967,
      "Ġhose": 2968,
      "cient": 2969,
      "Ġspent": 2970,
      "Ġshoe": 2971,
      "Ġtaught": 2972,
      "Ġstubborn": 2973,
      "Ġtwist": 2974,
      "Ġcreature": 2975,
      "Ġchest": 2976,
      "Ġspoiled": 2977,
      "Ġrelieved": 2978,
      "Ġancient": 2979,
      "ique": 2980,
      "Ġwake": 2981,
      "Ġfier": 2982,
      "Ġpray": 2983,
      "Ġfierce": 2984,
      "Ġeggs": 2985,
      "Ġcab": 2986,
      "Ġterri": 2987,
      "Ġbarn": 2988,
      "Ġpumpkin": 2989,
      "Ġcomfortable": 2990,
      "Ġord": 2991,
      "ym": 2992,
      "Ġfrightened": 2993,
      "orry": 2994,
      "Ġtoug": 2995,
      "Ġunique": 2996,
      "Ġmeasure": 2997,
      "Ġgoat": 2998,
      "Ġwagon": 2999,
      "Ġunus": 3000,
      "Ġbreath": 3001,
      "Ġfoolish": 3002,
      "Ġuseful": 3003,
      "Ġexploring": 3004,
      "dle": 3005,
      "Ġstraw": 3006,
      "Ġunusual": 3007,
      "Ġdug": 3008,
      "Ġclay": 3009,
      "Ġdiscover": 3010,
      "Ġtomato": 3011,
      "ĠPe": 3012,
      "Ġdead": 3013,
      "Ġfinding": 3014,
      "Ġpolice": 3015,
      "Ġwrote": 3016,
      "Ġclum": 3017,
      "Ġexam": 3018,
      "lace": 3019,
      "Ġwaves": 3020,
      "Ġsquare": 3021,
      "Ġhears": 3022,
      "Ġcabin": 3023,
      "Ġtells": 3024,
      "Ġnecklace": 3025,
      "Ġdull": 3026,
      "Ġclumsy": 3027,
      "Ġtough": 3028,
      "Ġbubbles": 3029,
      "Ġnosy": 3030,
      "kn": 3031,
      "Ġsearched": 3032,
      "Together": 3033,
      "Ġwashed": 3034,
      "Ġbathroom": 3035,
      "Ġpaws": 3036,
      "bby": 3037,
      "ond": 3038,
      "unn": 3039,
      "anged": 3040,
      "Ġboard": 3041,
      "known": 3042,
      "fic": 3043,
      "Ġasking": 3044,
      "Ġcrazy": 3045,
      "Ġthankful": 3046,
      "Ġbitter": 3047,
      "Ġsunf": 3048,
      "yal": 3049,
      "Ġpir": 3050,
      "berry": 3051,
      "Ġind": 3052,
      "alk": 3053,
      "Ġdiffic": 3054,
      "Ġrose": 3055,
      "cil": 3056,
      "Ġswan": 3057,
      "Ġbloom": 3058,
      "Ġunknown": 3059,
      "ĠElla": 3060,
      "Ġcovered": 3061,
      "Ġdifficult": 3062,
      "Ġadd": 3063,
      "Ġpencil": 3064,
      "Ġfinger": 3065,
      "Ġham": 3066,
      "Ġhoop": 3067,
      "Ġjet": 3068,
      "Ġwitch": 3069,
      "Ġdrop": 3070,
      "Me": 3071,
      "Ġ'": 3072,
      "Ġchicken": 3073,
      "Ġgloomy": 3074,
      "apped": 3075,
      "Ġloyal": 3076,
      "als": 3077,
      "Here": 3078,
      "Ġwealthy": 3079,
      "com": 3080,
      "light": 3081,
      "Ġunl": 3082,
      "Ġcats": 3083,
      "Ġending": 3084,
      "Ġguit": 3085,
      "bled": 3086,
      "shine": 3087,
      "Ġdove": 3088,
      "Ġjoined": 3089,
      "Ġcher": 3090,
      "anut": 3091,
      "Ġmov": 3092,
      "Ġterrible": 3093,
      "Ġyours": 3094,
      "iant": 3095,
      "ĠU": 3096,
      "ĠRex": 3097,
      "Ġsalad": 3098,
      "ĠAndy": 3099,
      "Ġnuts": 3100,
      "Ġrat": 3101,
      "Ġlif": 3102,
      "ground": 3103,
      "Ġtiger": 3104,
      "Ġpotato": 3105,
      "Ġmask": 3106,
      "xible": 3107,
      "selves": 3108,
      "Ġvalue": 3109,
      "Ġchanged": 3110,
      "Ġmoving": 3111,
      "Ġexciting": 3112,
      "ormous": 3113,
      "ĠMany": 3114,
      "Ġbody": 3115,
      "ĠTr": 3116,
      "Ġtoast": 3117,
      "Ġrecord": 3118,
      "erp": 3119,
      "Ġzip": 3120,
      "Ġcheap": 3121,
      "Ġdisg": 3122,
      "Ġguitar": 3123,
      "irsty": 3124,
      "Ġknowing": 3125,
      "Ġadventur": 3126,
      "Ġyourself": 3127,
      "Ġenormous": 3128,
      "Ġhairy": 3129,
      "Every": 3130,
      "Ġshoot": 3131,
      "ĠBrown": 3132,
      "Ġbored": 3133,
      "Ġpepper": 3134,
      "Ġremind": 3135,
      "ory": 3136,
      "land": 3137,
      "Ġacorn": 3138,
      "Ġadventurous": 3139,
      "Ġsunshine": 3140,
      "Ġsmaller": 3141,
      "Ġstuff": 3142,
      "Ġhats": 3143,
      "Ġsolve": 3144,
      "ĠJimmy": 3145,
      "Ġflexible": 3146,
      "Ġcost": 3147,
      "rilliant": 3148,
      "Ġknife": 3149,
      "Ġperform": 3150,
      "Ġsnacks": 3151,
      "Ġnods": 3152,
      "Ġshore": 3153,
      "Ġbrilliant": 3154,
      "Ġthirsty": 3155,
      "Ġdelicate": 3156,
      "Ġfrown": 3157,
      "Ġdisgust": 3158,
      "Ġcollect": 3159,
      "Ġstri": 3160,
      "Ġseeds": 3161,
      "Ġcounted": 3162,
      "Ġasleep": 3163,
      "Ġbanana": 3164,
      "reen": 3165,
      "Ġmailbox": 3166,
      "iness": 3167,
      "Ġdough": 3168,
      "Ġtrick": 3169,
      "Ġneighbor": 3170,
      "ungle": 3171,
      "Ġheal": 3172,
      "Who": 3173,
      "live": 3174,
      "Ġstage": 3175,
      "ident": 3176,
      "Ġmarket": 3177,
      "Ġcube": 3178,
      "Ġstat": 3179,
      "Ġjungle": 3180,
      "Ġsquee": 3181,
      "mbre": 3182,
      "Ġexplained": 3183,
      "ates": 3184,
      "Ġumbre": 3185,
      "Ġdisgusting": 3186,
      "Jim": 3187,
      "Ġlab": 3188,
      "Ġjolly": 3189,
      "Ġflash": 3190,
      "und": 3191,
      "Ġfridge": 3192,
      "inal": 3193,
      "pid": 3194,
      "ilt": 3195,
      "Ġcrane": 3196,
      "corn": 3197,
      "Ġsuit": 3198,
      "Ġrh": 3199,
      "iddle": 3200,
      "Ġsunflower": 3201,
      "Ġtimes": 3202,
      "ĠAl": 3203,
      "Ġcaterp": 3204,
      "Ġcaterpill": 3205,
      "Ġrelax": 3206,
      "Ġshiver": 3207,
      "Ġfour": 3208,
      "Ġisland": 3209,
      "iginal": 3210,
      "Ġharm": 3211,
      "ict": 3212,
      "ĠWhile": 3213,
      "ying": 3214,
      "Ġstupid": 3215,
      "Ġmedic": 3216,
      "ĠInstead": 3217,
      "Ġcomb": 3218,
      "Ġgoose": 3219,
      "Ġcro": 3220,
      "edient": 3221,
      "ĠWill": 3222,
      "Ġstove": 3223,
      "If": 3224,
      "Are": 3225,
      "Ġindepend": 3226,
      "Mum": 3227,
      "most": 3228,
      "Ġspring": 3229,
      "Ġgem": 3230,
      "Ġbatter": 3231,
      "Ġsighed": 3232,
      "Ġvegetables": 3233,
      "Ġstones": 3234,
      "pes": 3235,
      "Ġshine": 3236,
      "How": 3237,
      "Ġmedicine": 3238,
      "Ġdepend": 3239,
      "Ġrug": 3240,
      "ĠYour": 3241,
      "Ġcareless": 3242,
      "Ġoriginal": 3243,
      "Ġstamp": 3244,
      "Ġgar": 3245,
      "Ġcries": 3246,
      "Inside": 3247,
      "gu": 3248,
      "Ġcarrots": 3249,
      "Ġscr": 3250,
      "Ġsuccessful": 3251,
      "Ġsauce": 3252,
      "Ġjeep": 3253,
      "Ġpopcorn": 3254,
      "Ġmeal": 3255,
      "Ġobedient": 3256,
      "Ġalmost": 3257,
      "Ġmiddle": 3258,
      "Ġmagn": 3259,
      "Ġstudy": 3260,
      "Ġindependent": 3261,
      "Ġfearful": 3262,
      "Ġjack": 3263,
      "met": 3264,
      "inky": 3265,
      "Sorry": 3266,
      "ĠSammy": 3267,
      "Ġescape": 3268,
      "Ġcaterpillar": 3269,
      "Ġserious": 3270,
      "Ġpeanut": 3271,
      "Ġbedroom": 3272,
      "Ġeager": 3273,
      "aken": 3274,
      "Ġgets": 3275,
      "Ġparrot": 3276,
      "Ġstatue": 3277,
      "Ġhelmet": 3278,
      "Ġpebb": 3279,
      "ĠNo": 3280,
      "Ġfountain": 3281,
      "Ġang": 3282,
      "Ġraven": 3283,
      "Ġpasta": 3284,
      "Ġumbrella": 3285,
      "Ġcompet": 3286,
      "There": 3287,
      "Ġjacket": 3288,
      "Ġbelonged": 3289,
      "Ġdest": 3290,
      "Ġfilthy": 3291,
      "Ġdesign": 3292,
      "Ġborrow": 3293,
      "Ġcam": 3294,
      "erable": 3295,
      "Ġhouses": 3296,
      "Ġprize": 3297,
      "Ġhay": 3298,
      "Ġbrace": 3299,
      "Ġstanding": 3300,
      "Ġmiserable": 3301,
      "Ġraced": 3302,
      "Ġtaken": 3303,
      "ages": 3304,
      "Ġfork": 3305,
      "Ġcrayon": 3306,
      "Ġpainting": 3307,
      "io": 3308,
      "Ġtriang": 3309,
      "Ġimpressive": 3310,
      "Ġchoose": 3311,
      "Ġfig": 3312,
      "Ġtied": 3313,
      "iable": 3314,
      "Ġspotted": 3315,
      "Ġlifted": 3316,
      "Ġslipped": 3317,
      "ours": 3318,
      "Ġtank": 3319,
      "Ġthoughtful": 3320,
      "Ġdependable": 3321,
      "Ġsteal": 3322,
      "Ġgarage": 3323,
      "enny": 3324,
      "Ġbuilt": 3325,
      "Ġmush": 3326,
      "Ġer": 3327,
      "ipe": 3328,
      "Ġmole": 3329,
      "Ġcrawled": 3330,
      "Ġscale": 3331,
      "Ġboats": 3332,
      "Ġpant": 3333,
      "Ġpian": 3334,
      "Ġhammer": 3335,
      "Ġbottom": 3336,
      "lph": 3337,
      "Ġcheerful": 3338,
      "Ġusing": 3339,
      "Ġsmoke": 3340,
      "Ġpicks": 3341,
      "Ġmoder": 3342,
      "Ġshows": 3343,
      "berries": 3344,
      "rn": 3345,
      "Ġpiano": 3346,
      "Ġmagnet": 3347,
      "dile": 3348,
      "codile": 3349,
      "Ġhurts": 3350,
      "inary": 3351,
      "Ġref": 3352,
      "Ġcrack": 3353,
      "Ġeng": 3354,
      "Ġaunt": 3355,
      "Ġmelon": 3356,
      "Ġwaff": 3357,
      "Ġmodern": 3358,
      "Ġdolph": 3359,
      "unnel": 3360,
      "cream": 3361,
      "pack": 3362,
      "Ġtunnel": 3363,
      "oin": 3364,
      "Ġarrow": 3365,
      "Ġreliable": 3366,
      "Ġhopping": 3367,
      "Ġmushroom": 3368,
      "Ġjug": 3369,
      "Timmy": 3370,
      "Ġsquash": 3371,
      "Ġgum": 3372,
      "Ġsink": 3373,
      "Ġmovie": 3374,
      "Ġtax": 3375,
      "Ġflute": 3376,
      "Ġbeet": 3377,
      "Ġlean": 3378,
      "Their": 3379,
      "iv": 3380,
      "Ġpopular": 3381,
      "icop": 3382,
      "icopter": 3383,
      "Ġcryst": 3384,
      "Ġones": 3385,
      "Ġsil": 3386,
      "Ġcompetit": 3387,
      "Ġhelicopter": 3388,
      "aser": 3389,
      "Ġneeds": 3390,
      "ipop": 3391,
      "llipop": 3392,
      "Ġcrocodile": 3393,
      "Ġliz": 3394,
      "Molly": 3395,
      "Ġpress": 3396,
      "Ġtroubled": 3397,
      "Ġpige": 3398,
      "Ġlocked": 3399,
      "Ġtricks": 3400,
      "Ġlollipop": 3401,
      "Ġplayful": 3402,
      "Ġhumble": 3403,
      "Ġtaxi": 3404,
      "Ġkissed": 3405,
      "Ġlow": 3406,
      "appy": 3407,
      "comfortable": 3408,
      "amond": 3409,
      "Ġrid": 3410,
      "Ġuncomfortable": 3411,
      "host": 3412,
      "Ġwander": 3413,
      "atch": 3414,
      "Ġangel": 3415,
      "edy": 3416,
      "cles": 3417,
      "Ġtorn": 3418,
      "Ġgrace": 3419,
      "Ġanx": 3420,
      "Ġwrapped": 3421,
      "Ġmuff": 3422,
      "Ġtwig": 3423,
      "Ġpants": 3424,
      "Ġdisappoin": 3425,
      "ĠSn": 3426,
      "Ġhelps": 3427,
      "Ġdiamond": 3428,
      "Ġcamera": 3429,
      "atter": 3430,
      "oto": 3431,
      "Ġanxious": 3432,
      "Ġghost": 3433,
      "Ġtears": 3434,
      "Ġruined": 3435,
      "cident": 3436,
      "ĠJenny": 3437,
      "ilty": 3438,
      "Ġquar": 3439,
      "aff": 3440,
      "ĠEven": 3441,
      "Ġfis": 3442,
      "opl": 3443,
      "Ġbelt": 3444,
      "eropl": 3445,
      "Ġenv": 3446,
      "Ġguilty": 3447,
      "Ġbull": 3448,
      "Ġaeropl": 3449,
      "Ġhelpless": 3450,
      "Ġhappiness": 3451,
      "Ġlizard": 3452,
      "Ġboys": 3453,
      "cut": 3454,
      "Ġcere": 3455,
      "Ġwalks": 3456,
      "cean": 3457,
      "Ġpassed": 3458,
      "Ġmeant": 3459,
      "Ġocean": 3460,
      "Ġfluffy": 3461,
      "Ġwire": 3462,
      "Ġnail": 3463,
      "Ġbracelet": 3464,
      "Ġdeaf": 3465,
      "zed": 3466,
      "Ġstretch": 3467,
      "Ġcact": 3468,
      "Ġcandle": 3469,
      "tt": 3470,
      "Ġbeetle": 3471,
      "Ġmop": 3472,
      "Ġharmless": 3473,
      "umpet": 3474,
      "Ġordinary": 3475,
      "Ġanswered": 3476,
      "Ġcop": 3477,
      "Ġcollar": 3478,
      "Ġbees": 3479,
      "Ġtire": 3480,
      "Ġshape": 3481,
      "Ġquarrel": 3482,
      "Ġradio": 3483,
      "Ġflashlight": 3484,
      "Ġcrystal": 3485,
      "Ġharder": 3486,
      "Ġpoured": 3487,
      "Ġtrumpet": 3488,
      "Ġengine": 3489,
      "Mama": 3490,
      "Ġpersist": 3491,
      "Ġhunt": 3492,
      "Ġtooth": 3493,
      "Ġcereal": 3494,
      "Ġinvited": 3495,
      "Ġcomput": 3496,
      "Ġtag": 3497,
      "Ġoffice": 3498,
      "Ġmelt": 3499,
      "Ġspill": 3500,
      "Ġcharm": 3501,
      "coa": 3502,
      "Ġlit": 3503,
      "Ġscoot": 3504,
      "Ġcomet": 3505,
      "Ġtriangle": 3506,
      "ief": 3507,
      "Ġmug": 3508,
      "Ġrep": 3509,
      "ube": 3510,
      "Ġyogurt": 3511,
      "Ġspend": 3512,
      "Ġcompass": 3513,
      "Ġaccident": 3514,
      "Ġshade": 3515,
      "hett": 3516,
      "aghett": 3517,
      "aghetti": 3518,
      "Ġdisappointed": 3519,
      "Ġlicked": 3520,
      "Ġcactus": 3521,
      "Ġpale": 3522,
      "Ġcush": 3523,
      "Ġfigure": 3524,
      "Ġgiving": 3525,
      "Ġregular": 3526,
      "Ġavoc": 3527,
      "Ġsheet": 3528,
      "Ġwhispered": 3529,
      "aze": 3530,
      "uth": 3531,
      "ellig": 3532,
      "Ġcreate": 3533,
      "Ġbarber": 3534,
      "Ġintellig": 3535,
      "Ġpipe": 3536,
      "Ġrode": 3537,
      "Ġroof": 3538,
      "Jane": 3539,
      "Ġthread": 3540,
      "ither": 3541,
      "Ġlibr": 3542,
      "Ġload": 3543,
      "Ġvi": 3544,
      "Ġgifted": 3545,
      "ccol": 3546,
      "Ġpracticed": 3547,
      "Ġdelight": 3548,
      "ccoli": 3549,
      "Ġharsh": 3550,
      "Ġdust": 3551,
      "Ġpow": 3552,
      "asses": 3553,
      "ĠTrue": 3554,
      "Ġbicy": 3555,
      "azz": 3556,
      "Ġspaghetti": 3557,
      "Ġcompassion": 3558,
      "Ġsailed": 3559,
      "urkey": 3560,
      "ubby": 3561,
      "Ġforward": 3562,
      "Ġpersistent": 3563,
      "Ġspeed": 3564,
      "Ġmitten": 3565,
      "Ġpro": 3566,
      "Ġcocoa": 3567,
      "Ġenvel": 3568,
      "Ġquestions": 3569,
      "Ġcomputer": 3570,
      "Ġcoo": 3571,
      "Ġfeathers": 3572,
      "hip": 3573,
      "Ġglove": 3574,
      "ging": 3575,
      "Bobo": 3576,
      "Ġrice": 3577,
      "Ġshrimp": 3578,
      "Ġdesk": 3579,
      "Ġstream": 3580,
      "Ġinse": 3581,
      "Ġpigeon": 3582,
      "Ġcharming": 3583,
      "Ġears": 3584,
      "Ġcarp": 3585,
      "lcan": 3586,
      "Ġenvious": 3587,
      "Ġknot": 3588,
      "Ġturkey": 3589,
      "Ġstronger": 3590,
      "omes": 3591,
      "Ġcoins": 3592,
      "Ġtap": 3593,
      "Ġraft": 3594,
      "lcano": 3595,
      "weet": 3596,
      "Ġtrap": 3597,
      "umbers": 3598,
      "Ġaeroplane": 3599,
      "Ġtrunk": 3600,
      "Ġwheat": 3601,
      "Ġboxes": 3602,
      "Ġchubby": 3603,
      "Ġcarpet": 3604,
      "Ġrestless": 3605,
      "Ġintelligent": 3606,
      "Ġtube": 3607,
      "Ġspun": 3608,
      "Ġdreams": 3609,
      "Ġhalf": 3610,
      "Ġfriendship": 3611,
      "ulif": 3612,
      "olin": 3613,
      "Ġloop": 3614,
      "Ġcrawl": 3615,
      "Ġbroccoli": 3616,
      "Ġonion": 3617,
      "Ġweek": 3618,
      "Ġdeliver": 3619,
      "anger": 3620,
      "Ġacce": 3621,
      "Ġvide": 3622,
      "Ġvolcano": 3623,
      "ĠJake": 3624,
      "Ġsle": 3625,
      "Ġtrack": 3626,
      "Ġbri": 3627,
      "Ġcaulif": 3628,
      "Ġvine": 3629,
      "ye": 3630,
      "Ġticket": 3631,
      "Ġthief": 3632,
      "essie": 3633,
      "cycle": 3634,
      "Ġlouder": 3635,
      "Ġinsect": 3636,
      "Ġnumbers": 3637,
      "asing": 3638,
      "Ġyaw": 3639,
      "Ġhaircut": 3640,
      "ital": 3641,
      "Ġsleeping": 3642,
      "Ġmill": 3643,
      "Ġeventually": 3644,
      "Ġalert": 3645,
      "Ġexcite": 3646,
      "Ġpebble": 3647,
      "Ġhosp": 3648,
      "Ġattract": 3649,
      "Ġplanet": 3650,
      "ĠToday": 3651,
      "Ġuniver": 3652,
      "isted": 3653,
      "ulu": 3654,
      "Ġeraser": 3655,
      "Ġhospital": 3656,
      "Ġreturned": 3657,
      "Ġdestro": 3658,
      "Ġgraceful": 3659,
      "Ġhappening": 3660,
      "ache": 3661,
      "ĠOK": 3662,
      "ĠEmily": 3663,
      "Ġdecide": 3664,
      "Ġlearning": 3665,
      "Ġscreen": 3666,
      "rework": 3667,
      "Ġnicely": 3668,
      "Ġleop": 3669,
      "Ġcauliflower": 3670,
      "Ġcompetitive": 3671,
      "Ġpoem": 3672,
      "Ġcelebrate": 3673,
      "Ġcurt": 3674,
      "Ġpeach": 3675,
      "Ġsoldier": 3676,
      "Ġsaus": 3677,
      "Ġparade": 3678,
      "atient": 3679,
      "Ġattractive": 3680,
      "Ġcurtain": 3681,
      "Ġbase": 3682,
      "Ġdolphin": 3683,
      "Ġviolin": 3684,
      "Ġways": 3685,
      "Go": 3686,
      "ats": 3687,
      "Ġtravel": 3688,
      "Ġrod": 3689,
      "Ġignorant": 3690,
      "ulb": 3691,
      "Ġwheels": 3692,
      "Ġyach": 3693,
      "Ġscatter": 3694,
      "Ġdeter": 3695,
      "Ġcompassionate": 3696,
      "Ġbarrel": 3697,
      "Ġenvelope": 3698,
      "Ġbubble": 3699,
      "Ġlying": 3700,
      "Ġfirework": 3701,
      "Ġsort": 3702,
      "Ġquestion": 3703,
      "zzy": 3704,
      "ĠPipp": 3705,
      "Ġscooter": 3706,
      "Ġdeterm": 3707,
      "Ġrag": 3708,
      "Ġthu": 3709,
      "Ġbicycle": 3710,
      "elery": 3711,
      "Ġneedle": 3712,
      "ĠFr": 3713,
      "Ġjudge": 3714,
      "Ġbulb": 3715,
      "Ġleopard": 3716,
      "Ġtem": 3717,
      "Ġyacht": 3718,
      "Ġpony": 3719,
      "Ġcricket": 3720,
      "Ġhomes": 3721,
      "Ġorder": 3722,
      "Ġador": 3723,
      "tern": 3724,
      "Ġtruth": 3725,
      "Ġhook": 3726,
      "dom": 3727,
      "Ġrubbed": 3728,
      "ete": 3729,
      "igator": 3730,
      "Ġbushes": 3731,
      "Sarah": 3732,
      "Ġuncle": 3733,
      "Ġcushion": 3734,
      "Ġspell": 3735,
      "Ġgrown": 3736,
      "Ġcooked": 3737,
      "Ġadorable": 3738,
      "Ġchalk": 3739,
      "Ġsoar": 3740,
      "Ġpurse": 3741,
      "Ġskin": 3742,
      "Ġthemselves": 3743,
      "Ġimpatient": 3744,
      "Ġcelery": 3745,
      "Ġtray": 3746,
      "Ġshells": 3747,
      "Ġpengu": 3748,
      "Ġsniff": 3749,
      "Ġprun": 3750,
      "Ġwalls": 3751,
      "Ġseal": 3752,
      "Ġlively": 3753,
      "Ġcase": 3754,
      "Ġalligator": 3755,
      "Ġdistant": 3756,
      "Ġradish": 3757,
      "Ġsaying": 3758,
      "Ġspeak": 3759,
      "Ġmotorcycle": 3760,
      "Ġmeat": 3761,
      "Ġsend": 3762,
      "illa": 3763,
      "Ġspinning": 3764,
      "Ġforth": 3765,
      "Ġcounting": 3766,
      "Ġenth": 3767,
      "Ġbounced": 3768,
      "Ġchain": 3769,
      "Ġed": 3770,
      "Ġcleaning": 3771,
      "ebra": 3772,
      "Ġfilm": 3773,
      "Ġslept": 3774,
      "Ġpit": 3775,
      "Ġsurf": 3776,
      "Ġmarry": 3777,
      "usia": 3778,
      "Ġwallet": 3779,
      "Ġenthusia": 3780,
      "Ġmetal": 3781,
      "urb": 3782,
      "ebook": 3783,
      "Ġbin": 3784,
      "Ġnotebook": 3785,
      "Ġskip": 3786,
      "Ġwiped": 3787,
      "ision": 3788,
      "chair": 3789,
      "Ġbiggest": 3790,
      "Ġimpro": 3791,
      "Ġavocado": 3792,
      "Ġbehave": 3793,
      "Ġdestroy": 3794,
      "vator": 3795,
      "Ġbandage": 3796,
      "Ġlaughs": 3797,
      "Ġsteak": 3798,
      "Ġpattern": 3799,
      "ĠSh": 3800,
      "Ġpost": 3801,
      "Ġelevator": 3802,
      "ĠBuzz": 3803,
      "usie": 3804,
      "Ġdive": 3805,
      "Ġshut": 3806,
      "Ġskipped": 3807,
      "Ġunlock": 3808,
      "Ġdiary": 3809,
      "dest": 3810,
      "ject": 3811,
      "Ġzebra": 3812,
      "Ġbags": 3813,
      "ating": 3814,
      "Ġarmchair": 3815,
      "rage": 3816,
      "aged": 3817,
      "Ġdisturb": 3818,
      "Ġoy": 3819,
      "Ġpole": 3820,
      "Ġshowing": 3821,
      "Ġclub": 3822,
      "Ġgathered": 3823,
      "Ġnurse": 3824,
      "bul": 3825,
      "Ġearth": 3826,
      "Ġenc": 3827,
      "Ġstranger": 3828,
      "Ġsweater": 3829,
      "Ġjellyfish": 3830,
      "Ġscrew": 3831,
      "Ġtemp": 3832,
      "ĠPoppy": 3833,
      "Ġcompl": 3834,
      "Ġmixer": 3835,
      "Give": 3836,
      "Ġskull": 3837,
      "Ġlime": 3838,
      "Ġbump": 3839,
      "bulance": 3840,
      "Ġambulance": 3841,
      "nam": 3842,
      "Ġfather": 3843,
      "Ġjournal": 3844,
      "Gra": 3845,
      "Ġloudly": 3846,
      "ito": 3847,
      "Ġfolder": 3848,
      "ĠBet": 3849,
      "Ġshield": 3850,
      "ĠLulu": 3851,
      "ĠPeter": 3852,
      "Ġlibrary": 3853,
      "Ġbuttons": 3854,
      "Ġplayground": 3855,
      "Ġtrucks": 3856,
      "Ġink": 3857,
      "Ġlights": 3858,
      "Ġtummy": 3859,
      "Ġpointing": 3860,
      "Ġcity": 3861,
      "Ġdecorate": 3862,
      "Ġstation": 3863,
      "irit": 3864,
      "Ġprep": 3865,
      "Ġfalls": 3866,
      "quito": 3867,
      "ĠPolly": 3868,
      "Billy": 3869,
      "Ġfu": 3870,
      "ĠFo": 3871,
      "ention": 3872,
      "nger": 3873,
      "ĠBirdy": 3874,
      "lies": 3875,
      "Ġherb": 3876,
      "Ġornam": 3877,
      "Ġornament": 3878,
      "Ġmodest": 3879,
      "Ġguard": 3880,
      "Ġmos": 3881,
      "Ġknows": 3882,
      "Ġcord": 3883,
      "Ġpolish": 3884,
      "Ġmarble": 3885,
      "oby": 3886,
      "Ġmosquito": 3887,
      "umbled": 3888,
      "Ġsalt": 3889,
      "Ġattic": 3890,
      "Ġwhenever": 3891,
      "Ġvest": 3892,
      "ctop": 3893,
      "Ġresc": 3894,
      "Ġyet": 3895,
      "Ġple": 3896,
      "Ġdisappeared": 3897,
      "ceed": 3898,
      "Ġstrawberry": 3899,
      "Ġonce": 3900,
      "ĠMum": 3901,
      "Ġkay": 3902,
      "Ġbrothers": 3903,
      "Ġitch": 3904,
      "Ġpirate": 3905,
      "Ġfootball": 3906,
      "Ġsplit": 3907,
      "kele": 3908,
      "keleton": 3909,
      "Ġhipp": 3910,
      "Ġaut": 3911,
      "Ġled": 3912,
      "uring": 3913,
      "ctopus": 3914,
      "Ġdriving": 3915,
      "Ġcable": 3916,
      "Ġsupport": 3917,
      "Ġcalling": 3918,
      "Ġcupboard": 3919,
      "aky": 3920,
      "ushed": 3921,
      "Ġwishes": 3922,
      "Ġcomplet": 3923,
      "Ġtripped": 3924,
      "Ġroot": 3925,
      "Ġkayak": 3926,
      "Ġoctopus": 3927,
      "obile": 3928,
      "Ġadded": 3929,
      "Ġedge": 3930,
      "Ġmild": 3931,
      "stic": 3932,
      "Ġdetermined": 3933,
      "Ġsucceed": 3934,
      "?\".": 3935,
      "Ġreading": 3936,
      "omobile": 3937,
      "Ġcoal": 3938,
      "Well": 3939,
      "gl": 3940,
      "utes": 3941,
      "par": 3942,
      "Ġsuggest": 3943,
      "Ġstack": 3944,
      "Ġthunder": 3945,
      "Ġkindness": 3946,
      "Ġautomobile": 3947,
      "Ġcomplain": 3948,
      "Ġenthusiastic": 3949,
      "Ġsneeze": 3950,
      "Ġcartoon": 3951,
      "Ġyoga": 3952,
      "ĠLittle": 3953,
      "Ġgrowl": 3954,
      "htub": 3955,
      "Ġflea": 3956,
      "la": 3957,
      "Ġmeadow": 3958,
      "Ġdrawer": 3959,
      "Ġbathtub": 3960,
      "Ġribb": 3961,
      "ophone": 3962,
      "Ġhall": 3963,
      "Ġgolf": 3964,
      "Ġmeans": 3965,
      "Ġskeleton": 3966,
      "Ġmath": 3967,
      "Ġveil": 3968,
      "Ġhunter": 3969,
      "Ġgor": 3970,
      "Ġflame": 3971,
      "Ġpoke": 3972,
      "Ġvideo": 3973,
      "Ġchess": 3974,
      "Ġtroph": 3975,
      "Ġcups": 3976,
      "Ġglowing": 3977,
      "Ġmatt": 3978,
      "Ġoyster": 3979,
      "work": 3980,
      "Ġpenny": 3981,
      "Ġspear": 3982,
      "Ġitself": 3983,
      "Ġdrawings": 3984,
      "Ġhippo": 3985,
      "Ġrepair": 3986,
      "Ġswitch": 3987,
      "glasses": 3988,
      "Ġsunglasses": 3989,
      "Ġteleph": 3990,
      "Ġcostume": 3991,
      "Ġdess": 3992,
      "Ġzipp": 3993,
      ",âĢĿ": 3994,
      "Ġrepe": 3995,
      "Ġmuffin": 3996,
      "Ġarg": 3997,
      "Ġpastry": 3998,
      "Ġpun": 3999,
      "Ġrolling": 4000,
      "Ġminutes": 4001,
      "Ġmakeup": 4002,
      "Ġpacked": 4003,
      "iron": 4004,
      "ric": 4005,
      "ĠPeople": 4006,
      "Ġwaffle": 4007,
      "case": 4008,
      "Ġhandle": 4009,
      "Ġpear": 4010,
      "Ġmaze": 4011,
      "Ġtelephone": 4012,
      "Ġpine": 4013,
      "ait": 4014,
      "Ġgear": 4015,
      "Ġhedge": 4016,
      "Ġmattress": 4017,
      "Ġpackage": 4018,
      "aving": 4019,
      "ĠMiss": 4020,
      "Ġshocked": 4021,
      "ines": 4022,
      "Ġtrophy": 4023,
      "Ġpowder": 4024,
      "Ġknight": 4025,
      "Ġcob": 4026,
      "Ġmissile": 4027,
      "Ġframe": 4028,
      "Ġmanaged": 4029,
      "Ġencou": 4030,
      "Ġwife": 4031,
      "Ġok": 4032,
      "Ġsepar": 4033,
      "web": 4034,
      "Ġstairs": 4035,
      "Ġrot": 4036,
      "Ġcamp": 4037,
      "time": 4038,
      "rophone": 4039,
      "urch": 4040,
      "Ġmagaz": 4041,
      "Ġstrugg": 4042,
      "Ġcolour": 4043,
      "Ġgrapes": 4044,
      "Ġfile": 4045,
      "head": 4046,
      "ĠTina": 4047,
      "Ġbasketball": 4048,
      "Bye": 4049,
      "old": 4050,
      "per": 4051,
      "Ġcobweb": 4052,
      "Re": 4053,
      "Jimmy": 4054,
      "ĠTweet": 4055,
      "See": 4056,
      "Ġperm": 4057,
      "Ġwool": 4058,
      "ĠDan": 4059,
      "Ġmicrophone": 4060,
      "esday": 4061,
      "Ġeye": 4062,
      "Ġleash": 4063,
      "Ġgasp": 4064,
      "iew": 4065,
      "keep": 4066,
      "Ġweep": 4067,
      "Ġbarking": 4068,
      "ature": 4069,
      "Ġsafely": 4070,
      "Ġtear": 4071,
      "Ġview": 4072,
      "Ġslides": 4073,
      "offe": 4074,
      "Ġsteps": 4075,
      "istol": 4076,
      "offee": 4077,
      "Ġbananas": 4078,
      "Ġstaff": 4079,
      "Ġspirit": 4080,
      "Ġtask": 4081,
      "Ġgiggled": 4082,
      "Ġhoc": 4083,
      "Ġhockey": 4084,
      "Ġvend": 4085,
      "Ġthose": 4086,
      "Ġgorilla": 4087,
      "Jill": 4088,
      "Ġcooler": 4089,
      "ĠRose": 4090,
      "was": 4091,
      "cing": 4092,
      "Ġearly": 4093,
      "Ġmarched": 4094,
      "rosc": 4095,
      "Ġmint": 4096,
      "ĠLook": 4097,
      "washer": 4098,
      "Ġflour": 4099,
      "Ġhotel": 4100,
      "hic": 4101,
      "Ġsailor": 4102,
      "Ġdessert": 4103,
      "Ġphoto": 4104,
      "roscope": 4105,
      "Ġvehic": 4106,
      "ilot": 4107,
      "Ġoft": 4108,
      "Ġoften": 4109,
      "Ġchurch": 4110,
      "ĠPete": 4111,
      "Ġcooking": 4112,
      "Ġremain": 4113,
      "Ġfive": 4114,
      "Ġsausage": 4115,
      "otter": 4116,
      "Ġten": 4117,
      "Ġtools": 4118,
      "Ġmedal": 4119,
      "Ġeither": 4120,
      "Ġfireman": 4121,
      "chor": 4122,
      "Ġgrandpa": 4123,
      "Ġotter": 4124,
      "Ġbaseball": 4125,
      "Ġpistol": 4126,
      "Ġpretending": 4127,
      "Ġdishwasher": 4128,
      "Ġrever": 4129,
      "Ġorganize": 4130,
      "Ġpee": 4131,
      "Ġvendor": 4132,
      "Ġknock": 4133,
      "Ġsight": 4134,
      "Ġgrill": 4135,
      "Ġtemple": 4136,
      "Ġbattery": 4137,
      "Ġthinking": 4138,
      "Ġopens": 4139,
      "Ġow": 4140,
      "Ġrealised": 4141,
      "Ġiron": 4142,
      "Ġlaser": 4143,
      "Ġsne": 4144,
      "Ġoil": 4145,
      "Ġsandbox": 4146,
      "Ġpatch": 4147,
      "Ġhours": 4148,
      "Ġrise": 4149,
      "Ġwhip": 4150,
      "'d": 4151,
      "ctory": 4152,
      "ĠGive": 4153,
      "Ġanchor": 4154,
      "Ġtrash": 4155,
      "ense": 4156,
      "Ġshort": 4157,
      "ney": 4158,
      "ĠBetty": 4159,
      "Ġrhin": 4160,
      "Ġfactory": 4161,
      "seum": 4162,
      "Ġmay": 4163,
      "Ġward": 4164,
      "ately": 4165,
      "Ġcardboard": 4166,
      "ugged": 4167,
      "Ġlotion": 4168,
      "Al": 4169,
      "Ġmessage": 4170,
      "Ġvalu": 4171,
      "Ġwardrobe": 4172,
      "Ġcell": 4173,
      "Ġmuseum": 4174,
      "apers": 4175,
      "Ġur": 4176,
      "ination": 4177,
      "Ġhanging": 4178,
      "ucet": 4179,
      "ĠSunny": 4180,
      "ailable": 4181,
      "ĠZoom": 4182,
      "Ġhive": 4183,
      "eer": 4184,
      "Ġtowers": 4185,
      "keeper": 4186,
      "Ġblackboard": 4187,
      "Ġmem": 4188,
      "Ġexcitement": 4189,
      "Ġcoffee": 4190,
      "Ġpilot": 4191,
      "Fluffy": 4192,
      "ready": 4193,
      "Ġnapkin": 4194,
      "Ġpenguin": 4195,
      "ron": 4196,
      "Ġcheck": 4197,
      "Ġreward": 4198,
      "loo": 4199,
      "Ġquit": 4200,
      "ĠPippin": 4201,
      "Ġcane": 4202,
      "Ġpicking": 4203,
      "place": 4204,
      "ĠSnow": 4205,
      "azor": 4206,
      "Ġig": 4207,
      "Ġfaucet": 4208,
      "Ġpassport": 4209,
      "ĠRob": 4210,
      "Ġstumbled": 4211,
      "Ġdreamed": 4212,
      "ĠBessie": 4213,
      "Ġigloo": 4214,
      "aroo": 4215,
      "angaroo": 4216,
      "Ġfreez": 4217,
      "Ġjuicy": 4218,
      "Ġallowed": 4219,
      "play": 4220,
      "Ġholds": 4221,
      "Ġalready": 4222,
      "Ġavailable": 4223,
      "Ġsett": 4224,
      "Ġbathe": 4225,
      "Ġtornado": 4226,
      "imney": 4227,
      "Ġfingers": 4228,
      "htray": 4229,
      "Ġhanger": 4230,
      "Ġnewsp": 4231,
      "Ġsize": 4232,
      "Ġlaund": 4233,
      "Ġlend": 4234,
      "Ġchimney": 4235,
      "Ġlaundry": 4236,
      "Ġoak": 4237,
      "Ġfisher": 4238,
      "Ġkangaroo": 4239,
      "Ġmen": 4240,
      "ĠEverywhere": 4241,
      "Ġtelling": 4242,
      "Em": 4243,
      "Ġnovel": 4244,
      "body": 4245,
      "Ġmummy": 4246,
      "Ġpal": 4247,
      "Ġmule": 4248,
      "Ġcherries": 4249,
      "Ġnotice": 4250,
      "Ġpractice": 4251,
      "Ġspilled": 4252,
      "Ġreind": 4253,
      "Ġcomplete": 4254,
      "Ġenjoying": 4255,
      "Ġmicroscope": 4256,
      "arian": 4257,
      "Ġgain": 4258,
      "ampoo": 4259,
      "Ġsub": 4260,
      "Ġfireplace": 4261,
      "Ġimagine": 4262,
      "anda": 4263,
      "Ġdisplay": 4264,
      "ocer": 4265,
      "ĠZip": 4266,
      "Ġfastest": 4267,
      "Ġmagazine": 4268,
      "Ġhurry": 4269,
      "Ġcabinet": 4270,
      "Ġshrink": 4271,
      "Ġashtray": 4272,
      "Wait": 4273,
      "Ġcows": 4274,
      "ĠSpike": 4275,
      "Joe": 4276,
      "gen": 4277,
      "Ġpalace": 4278,
      "Ġimprove": 4279,
      "aches": 4280,
      "Ġrake": 4281,
      "Ġreindeer": 4282,
      "Ġfalling": 4283,
      "oceros": 4284,
      "Ġskirt": 4285,
      "ured": 4286,
      "Ġdiscovered": 4287,
      "Ġstared": 4288,
      "Ġroared": 4289,
      "aid": 4290,
      "Ġsilver": 4291,
      "Ġtub": 4292,
      "Ġtrail": 4293,
      "Is": 4294,
      "Ġminer": 4295,
      "come": 4296,
      "Ġbill": 4297,
      "Ġfog": 4298,
      "iction": 4299,
      "Ġax": 4300,
      "stairs": 4301,
      "Ġhut": 4302,
      "ilet": 4303,
      "Ġhappier": 4304,
      "Ġtaller": 4305,
      "ictionary": 4306,
      "Ġoats": 4307,
      "Ġfisherman": 4308,
      "Ġobject": 4309,
      "Ġpor": 4310,
      "vision": 4311,
      "Ġvaluable": 4312,
      "Ġshampoo": 4313,
      "Ġholes": 4314,
      "Ġoffered": 4315,
      "Ġboots": 4316,
      "Ġrhinoceros": 4317,
      "Ġnames": 4318,
      "Ġtoilet": 4319,
      "Ġclimbing": 4320,
      "Ġblin": 4321,
      "vice": 4322,
      "Ow": 4323,
      "Ġstretched": 4324,
      "iest": 4325,
      "Ġzipper": 4326,
      "Ġlistening": 4327,
      "Ġsym": 4328,
      "Ġbathrobe": 4329,
      "alend": 4330,
      "Ġjewelry": 4331,
      "ĠHere": 4332,
      "Ġjokes": 4333,
      "Ġtelevision": 4334,
      "Ġprov": 4335,
      "Ġcalend": 4336,
      "Ġstops": 4337,
      "Ġaxe": 4338,
      "Ġjumps": 4339,
      "Ġfuel": 4340,
      "cu": 4341,
      "Ġsparkly": 4342,
      "Ġperfume": 4343,
      "ĠSusie": 4344,
      "Ġbury": 4345,
      "bol": 4346,
      "Mummy": 4347,
      "lu": 4348,
      "Ġpressed": 4349,
      "ĠKim": 4350,
      "reek": 4351,
      "Ġrece": 4352,
      "ĠToby": 4353,
      "Ġneat": 4354,
      "Ġcreek": 4355,
      "Ġpopped": 4356,
      "Ġopera": 4357,
      "Ġcalendar": 4358,
      "Ġsnap": 4359,
      "Ġattach": 4360,
      "Ġgasped": 4361,
      "Ġsymbol": 4362,
      "Ġtuna": 4363,
      "ĠMar": 4364,
      "Ġpapers": 4365,
      "Mr": 4366,
      "Ġunpack": 4367,
      "Ġresist": 4368,
      "Ġdictionary": 4369,
      "Ġsubway": 4370,
      "Ġletters": 4371,
      "Ġfreezer": 4372,
      "Ġchose": 4373,
      "Ġpinch": 4374,
      "zag": 4375,
      "Ġspoke": 4376,
      "Ġanyway": 4377,
      "Ġsuper": 4378,
      "Ġhelper": 4379,
      "Ġporch": 4380,
      "affe": 4381,
      "Ġbikes": 4382,
      "Ġlie": 4383,
      "arry": 4384,
      "iches": 4385,
      "Ġcomfort": 4386,
      "Ġtightly": 4387,
      "Ġshaking": 4388,
      "Ġbookcase": 4389,
      "Ġson": 4390,
      "Ġrazor": 4391,
      "aurant": 4392,
      "ĠAre": 4393,
      "Ġsandwiches": 4394,
      "Ġext": 4395,
      "igzag": 4396,
      "Ġweigh": 4397,
      "Ġagainst": 4398,
      "Ġstickers": 4399,
      "Ġrestaurant": 4400,
      "Ġnewspaper": 4401,
      "Ġblouse": 4402,
      "te": 4403,
      "Ġvehicle": 4404,
      "Ġswinging": 4405,
      "Ġped": 4406,
      "Ġdisag": 4407,
      "Ġnature": 4408,
      "Ġsquirrels": 4409,
      "Ġbelongs": 4410,
      "ival": 4411,
      "Ġswamp": 4412,
      "Ġbutterflies": 4413,
      "Ġgym": 4414,
      "del": 4415,
      "Ġinclu": 4416,
      "Ġgrowing": 4417,
      "Ġbuckle": 4418,
      "omed": 4419,
      "Ġstirred": 4420,
      "Ġmustache": 4421,
      "Ġbillboard": 4422,
      "xy": 4423,
      "Ġbeep": 4424,
      "Ġalarm": 4425,
      "Ġlip": 4426,
      "Ġfest": 4427,
      "Ġlightning": 4428,
      "Ġhung": 4429,
      "utor": 4430,
      "Ġdistance": 4431,
      "ogn": 4432,
      "Ġcards": 4433,
      "Ġobser": 4434,
      "Ġagree": 4435,
      "Little": 4436,
      "Ġtease": 4437,
      "Ġrecogn": 4438,
      "Ġrubber": 4439,
      "ik": 4440,
      "Ġhate": 4441,
      "Ġsof": 4442,
      "fast": 4443,
      "ef": 4444,
      "Ouch": 4445,
      "Ġdoesn": 4446,
      "Ġmusician": 4447,
      "Ġadvice": 4448,
      "Ġbeef": 4449,
      "Ġserve": 4450,
      "aspoon": 4451,
      "Ġsweetie": 4452,
      "Ġmodel": 4453,
      "lter": 4454,
      "Ġblueberries": 4455,
      "Ġcrib": 4456,
      "Ġsofa": 4457,
      "Ġcircles": 4458,
      "Ġbreakfast": 4459,
      "Ġtutor": 4460,
      "asis": 4461,
      "Ġbookshe": 4462,
      "Ġgiraffe": 4463,
      "stri": 4464,
      "Ġfestival": 4465,
      "Ġseparate": 4466,
      "Ġshelter": 4467,
      "Ġgas": 4468,
      "Ġairport": 4469,
      "Ġolive": 4470,
      "Ġrail": 4471,
      "Ġbookshelf": 4472,
      "Ġfrogs": 4473,
      "Ġteaspoon": 4474,
      "Ġreverse": 4475,
      "Ġjunk": 4476,
      "Ġriding": 4477,
      "Ġpleased": 4478,
      "Ġdrain": 4479,
      "ĠMrs": 4480,
      "Ġwipe": 4481,
      "Ġoasis": 4482,
      "Ġsoil": 4483,
      "Ġahead": 4484,
      "Ġrescue": 4485,
      "Ġleaving": 4486,
      "ummer": 4487,
      "Ġpainter": 4488,
      "Ġchance": 4489,
      "Ġsqueeze": 4490,
      "Ġknob": 4491,
      "Ġpoked": 4492,
      "ĠTeddy": 4493,
      "Ġpeeked": 4494,
      "Ġlumber": 4495,
      "Ġtrains": 4496,
      "Ġextra": 4497,
      "Ġslipp": 4498,
      "Ġquiz": 4499,
      "Ġrefused": 4500,
      "res": 4501,
      "rmomet": 4502,
      "Ġpage": 4503,
      "Ġrules": 4504,
      "Ġhappens": 4505,
      "Ġins": 4506,
      "Ġsounded": 4507,
      "Ġpoint": 4508,
      "Ġwinter": 4509,
      "Ġdancer": 4510,
      "ĠGrandpa": 4511,
      "Ġbirdc": 4512,
      "Ġdisappear": 4513,
      "rmometer": 4514,
      "ĠDolly": 4515,
      "Ġwaste": 4516,
      "Ġweather": 4517,
      "Ġlic": 4518,
      "Ġbirdcage": 4519,
      "Ġtheater": 4520,
      "Ġreef": 4521,
      "Ġcarrying": 4522,
      "Daisy": 4523,
      "Ġinvite": 4524,
      "iform": 4525,
      "Ġgoal": 4526,
      "Ġostri": 4527,
      "Ġswung": 4528,
      "Ġuniform": 4529,
      "Ġtrade": 4530,
      "Ġcliff": 4531,
      "ience": 4532,
      "Ġlawn": 4533,
      "ĠPandy": 4534,
      "ola": 4535,
      "Ġleaned": 4536,
      "angu": 4537,
      "Ġaccept": 4538,
      "Ġadmire": 4539,
      "Ġfort": 4540,
      "Ġaccidentally": 4541,
      "Ġpastel": 4542,
      "bbles": 4543,
      "Ġstom": 4544,
      "Ġlangu": 4545,
      "Ġtwir": 4546,
      "Ġsuff": 4547,
      "Ġpanda": 4548,
      "riger": 4549,
      "Ġbet": 4550,
      "rigerator": 4551,
      "Ġpeek": 4552,
      "render": 4553,
      "Ġblinked": 4554,
      "Ġstarts": 4555,
      "na": 4556,
      "Ġrefrigerator": 4557,
      "Ġanywhere": 4558,
      "!\".": 4559,
      "Ġimagined": 4560,
      "Ġdreaming": 4561,
      "Ġremove": 4562,
      "night": 4563,
      "ĠLee": 4564,
      "Ġshower": 4565,
      "Ġceiling": 4566,
      "Ġclassroom": 4567,
      "Ġcaring": 4568,
      "ium": 4569,
      "Ġgrand": 4570,
      "Ġmissing": 4571,
      "aked": 4572,
      "Ġlicense": 4573,
      "Ġstable": 4574,
      "Ġthermometer": 4575,
      "Ġmonkeys": 4576,
      "astic": 4577,
      "Ġwarned": 4578,
      "Ġsummer": 4579,
      "ĠWhere": 4580,
      "Ġabove": 4581,
      "Ġbrick": 4582,
      "ected": 4583,
      "Ġcudd": 4584,
      "Ġproblems": 4585,
      "amber": 4586,
      "Ġchasing": 4587,
      "Ġapron": 4588,
      "Ġlabel": 4589,
      "Ġsent": 4590,
      "iture": 4591,
      "urniture": 4592,
      "Ġlawy": 4593,
      "Ġlid": 4594,
      "uggage": 4595,
      "med": 4596,
      "Ġrespectful": 4597,
      "Ġfurniture": 4598,
      "Ġfrowned": 4599,
      "Ġzoomed": 4600,
      "Ġpages": 4601,
      "Ġprevent": 4602,
      "Ġbent": 4603,
      "Ġluggage": 4604,
      "Ġmistakes": 4605,
      "Ġsunset": 4606,
      "Ġostrich": 4607,
      "ison": 4608,
      "Ġsuggested": 4609,
      "Ġwindows": 4610,
      "ations": 4611,
      "Ġjail": 4612,
      "low": 4613,
      "Ġwine": 4614,
      "Ġribbon": 4615,
      "Ġolder": 4616,
      "Ġshouts": 4617,
      "Ġgrape": 4618,
      "ĠCl": 4619,
      "Ġwigg": 4620,
      "ĠCo": 4621,
      "ucture": 4622,
      "Ġstructure": 4623,
      "Ġspoil": 4624,
      "eor": 4625,
      "Ġfixing": 4626,
      "Ġchamber": 4627,
      "Ġlions": 4628,
      "Ġdelay": 4629,
      "Ġfinds": 4630,
      "Ġhanded": 4631,
      "Ġsearching": 4632,
      "Ġunite": 4633,
      "Did": 4634,
      "Ġfought": 4635,
      "Ġlawyer": 4636,
      "Ġbrightly": 4637,
      "Ġpair": 4638,
      "Ġmeeting": 4639,
      "Ġchoice": 4640,
      "Ġsurprises": 4641,
      "ĠEllie": 4642,
      "Ġart": 4643,
      "ĠUn": 4644,
      "Ch": 4645,
      "Ġfavour": 4646,
      "eterin": 4647,
      "adium": 4648,
      "eterinarian": 4649,
      "Ġstadium": 4650,
      "Ġproudly": 4651,
      "iki": 4652,
      "Ġveterinarian": 4653,
      "vet": 4654,
      "rod": 4655,
      "Ġchairs": 4656,
      "Ġslip": 4657,
      "ĠSpe": 4658,
      "Ġsadly": 4659,
      "ĠBow": 4660,
      "Ġincre": 4661,
      "ĠCarl": 4662,
      "Ġpuddles": 4663,
      "Ġberry": 4664,
      "Ġintrod": 4665,
      "Ġranch": 4666,
      "veal": 4667,
      "ĠBoun": 4668,
      "Ġargue": 4669,
      "ĠV": 4670,
      "Ġadmired": 4671,
      "Ġcur": 4672,
      "Ġfavourite": 4673,
      "Your": 4674,
      "Ġinf": 4675,
      "Ġexcitedly": 4676,
      "Ġrac": 4677,
      "Ġgrabs": 4678,
      "mend": 4679,
      "Ġsteam": 4680,
      "thank": 4681,
      "Ġhuman": 4682,
      "eorge": 4683,
      "sity": 4684,
      "ĠHel": 4685,
      "Ġpushing": 4686,
      "Ġsaving": 4687,
      "ĠRed": 4688,
      "Ġreveal": 4689,
      "ommend": 4690,
      "Ġyield": 4691,
      "alley": 4692,
      "olog": 4693,
      "Ġmall": 4694,
      "Ġreminded": 4695,
      "Ġrecommend": 4696,
      "Ġleak": 4697,
      "Ġsurrender": 4698,
      "Ġharb": 4699,
      "Ġappl": 4700,
      "cuss": 4701,
      "aul": 4702,
      "Ġweap": 4703,
      "Ġregret": 4704,
      "Ġputting": 4705,
      "Ġvalley": 4706,
      "Ġmineral": 4707,
      "Ġevening": 4708,
      "elcome": 4709,
      "Ġforgave": 4710,
      "Ġmatches": 4711,
      "Ġsneezed": 4712,
      "Ġaw": 4713,
      "Ġpup": 4714,
      "Ġrushed": 4715,
      "ecause": 4716,
      "Ġspade": 4717,
      "Ġapolog": 4718,
      "Ġplates": 4719,
      "Ġdiscuss": 4720,
      "Ġprepare": 4721,
      "Ġharbor": 4722,
      "Ġignore": 4723,
      "ĠBig": 4724,
      "Ġcountry": 4725,
      "Ġlanguage": 4726,
      "ĠBuzzy": 4727,
      "Ġpulls": 4728,
      "Ġplastic": 4729,
      "Ġsupply": 4730,
      "Ġfloat": 4731,
      "Ġsniffed": 4732,
      "ĠJazz": 4733,
      "Ġreplace": 4734,
      "Ġmeas": 4735,
      "Ġshovel": 4736,
      "ĠBill": 4737,
      "Ġraise": 4738,
      "ĠNext": 4739,
      "Ġfre": 4740,
      "Ġcared": 4741,
      "Ġsocks": 4742,
      "Ġstrip": 4743,
      "Ġdoors": 4744,
      "Ġmystery": 4745,
      "Ġlives": 4746,
      "Ġrestore": 4747,
      "Ġsticker": 4748,
      "Ġsudden": 4749,
      "ari": 4750,
      "Ġkinds": 4751,
      "Ġslippery": 4752,
      "ero": 4753,
      "ĠOw": 4754,
      "Ġplayer": 4755,
      "Ġpanic": 4756,
      "Ġhoping": 4757,
      "ricane": 4758,
      "iday": 4759,
      "Ġshone": 4760,
      "lex": 4761,
      "hero": 4762,
      "Ġbeg": 4763,
      "ĠBinky": 4764,
      "ĠMike": 4765,
      "Ġsuperhero": 4766,
      "Ġdelighted": 4767,
      "Ġgro": 4768,
      "Yay": 4769,
      "aud": 4770,
      "chan": 4771,
      "Ġchickens": 4772,
      "Ġshoulder": 4773,
      "Ġrained": 4774,
      "Ġcolourful": 4775,
      "Ġbreat": 4776,
      "ĠAlice": 4777,
      "Ġclaw": 4778,
      "ĠBubbles": 4779,
      "Yuck": 4780,
      "Ġsoftly": 4781,
      "rise": 4782,
      "Ġport": 4783,
      "Ġhol": 4784,
      "Grandma": 4785,
      "icer": 4786,
      "Ġholiday": 4787,
      "oof": 4788,
      "ĠâĢ": 4789,
      "Ġbarks": 4790,
      "ason": 4791,
      "Ġthrowing": 4792,
      "Ġplanes": 4793,
      "Mary": 4794,
      "Ġbend": 4795,
      "ĠFreddy": 4796,
      "Ġshakes": 4797,
      "Ġended": 4798,
      "Ġinfant": 4799,
      "Ġshivering": 4800,
      "Ġkneel": 4801,
      "Ġsunrise": 4802,
      "Ġpushes": 4803,
      "ĠOlive": 4804,
      "Ġthanks": 4805,
      "Ġfresh": 4806,
      "Ġsuffer": 4807,
      "Ġpoints": 4808,
      "imed": 4809,
      "wards": 4810,
      "ĠPat": 4811,
      "Ġtip": 4812,
      "ĠSpeedy": 4813,
      "Ġfreeze": 4814,
      "Ġkeeping": 4815,
      "ĠWould": 4816,
      "Ġcopper": 4817,
      "Ġgiggle": 4818,
      "Ġsmells": 4819,
      "Ġdear": 4820,
      "Ġenter": 4821,
      "Ġprovide": 4822,
      "cast": 4823,
      "chanic": 4824,
      "Ġdishes": 4825,
      "ĠEnd": 4826,
      "cond": 4827,
      "Ġunh": 4828,
      "Next": 4829,
      "Ġapplaud": 4830,
      "Ġheads": 4831,
      "Ġhurricane": 4832,
      "Ġcherry": 4833,
      "Ġmass": 4834,
      "Ġthumb": 4835,
      "Ġmeowed": 4836,
      "Ġmenu": 4837,
      "Ġsecond": 4838,
      "Ġbrighter": 4839,
      "ince": 4840,
      "Ġsandcast": 4841,
      "Ġmechanic": 4842,
      "Ġwre": 4843,
      "Ġsprayed": 4844,
      "Ġevent": 4845,
      "Ġletting": 4846,
      "Ġweapon": 4847,
      "Ġlaught": 4848,
      "Ġx": 4849,
      "Ġlaughter": 4850,
      "Ġclapping": 4851,
      "Ġfeelings": 4852,
      "Will": 4853,
      "icky": 4854,
      "Ġsplashing": 4855,
      "ement": 4856,
      "ĠOr": 4857,
      "acked": 4858,
      "Ġcastles": 4859,
      "ĠFl": 4860,
      "cer": 4861,
      "Ġscore": 4862,
      "apping": 4863,
      "Ġuniverse": 4864,
      "Ġnavy": 4865,
      "Ġdem": 4866,
      "Ġsticky": 4867,
      "ophie": 4868,
      "Ġrow": 4869,
      "Ġrooms": 4870,
      "Ġflies": 4871,
      "igi": 4872,
      "ĠDave": 4873,
      "Ġunhappy": 4874,
      "Ġgreedy": 4875,
      "Ġdare": 4876,
      "Ġalive": 4877,
      "Ġbreaks": 4878,
      "Ġener": 4879,
      "Ġcourage": 4880,
      "Ġinvit": 4881,
      "Ready": 4882,
      "Ġrepeat": 4883,
      "Ġdemand": 4884,
      "Ġtrusted": 4885,
      "Lisa": 4886,
      "Ġsomewhere": 4887,
      "arlie": 4888,
      "Ġprune": 4889,
      "bles": 4890,
      "Ġwreck": 4891,
      "ĠY": 4892,
      "Ġskill": 4893,
      "Ġexamine": 4894,
      "Ġparts": 4895,
      "year": 4896,
      "Ġeaten": 4897,
      "oe": 4898,
      "All": 4899,
      "erc": 4900,
      "enry": 4901,
      "Ġmention": 4902,
      "Ġraining": 4903,
      "ĠHelp": 4904,
      "Buddy": 4905,
      "Ġthrows": 4906,
      "Ġjogged": 4907,
      "quest": 4908,
      "Ġstarting": 4909,
      "Ġrush": 4910,
      "Ġpoison": 4911,
      "Ġpirates": 4912,
      "heart": 4913,
      "Ġvac": 4914,
      "Ġcontent": 4915,
      "Emma": 4916,
      "ĠKiki": 4917,
      "Ġsigh": 4918,
      "Ġflapped": 4919,
      "Ġdrops": 4920,
      "Ġchirp": 4921,
      "Ġsport": 4922,
      "Qu": 4923,
      "Ġsparkled": 4924,
      "ĠZoomy": 4925,
      "Ġgiven": 4926,
      "Ġstreng": 4927,
      "Ġsteel": 4928,
      "Ann": 4929,
      "Ġbumped": 4930,
      "Ġyawned": 4931,
      "Ġstud": 4932,
      "Ġrequest": 4933,
      "Ġscold": 4934,
      "Ġmyself": 4935,
      "Ġstrength": 4936,
      "Ġshrugged": 4937,
      "Mark": 4938,
      "Ġcoats": 4939,
      "Ġpunish": 4940,
      "Ġequ": 4941,
      "Ġsnugg": 4942,
      "Ġuniversity": 4943,
      "Ġpaid": 4944,
      "ĠJohnny": 4945,
      "Ġpigs": 4946,
      "Ġscratch": 4947,
      "Ġtoe": 4948,
      "Ġexerc": 4949,
      "Ġtracks": 4950,
      "Ġupstairs": 4951,
      "Ġprayed": 4952,
      "Ġcrossed": 4953,
      "Ġsqueezed": 4954,
      "Ġflood": 4955,
      "Ġimpressed": 4956,
      "Ġbouncing": 4957,
      "ĠRu": 4958,
      "Alice": 4959,
      "Ġrabbits": 4960,
      "ges": 4961,
      "Ġbadly": 4962,
      "..": 4963,
      "Ġleather": 4964,
      "Ġwarn": 4965,
      "Ġexpect": 4966,
      "Ġnews": 4967,
      "Ġtide": 4968,
      "ĠTed": 4969,
      "Ġminute": 4970,
      "Ġbears": 4971,
      "Ġclaws": 4972,
      "Ġbuzz": 4973,
      "Ġsweetheart": 4974,
      "ĠSm": 4975,
      "yth": 4976,
      "Ġnation": 4977,
      "Sh": 4978,
      "ythm": 4979,
      "Ġhist": 4980,
      "Ġvacation": 4981,
      "Ġheat": 4982,
      "Ġstrawberries": 4983,
      "Ġobserve": 4984,
      "Ġexplored": 4985,
      "Ġsettle": 4986,
      "Ġsandcastle": 4987,
      "Ġyawn": 4988,
      "Ġhistory": 4989,
      "ĠLilly": 4990,
      "ĠLola": 4991,
      "mare": 4992,
      "ĠMummy": 4993,
      "ĠSque": 4994,
      "ially": 4995,
      "inking": 4996,
      "Ġbelieved": 4997,
      "Ġhorses": 4998,
      "Daddy": 4999
    },
    "merges": [
      [
        "Ġ",
        "t"
      ],
      [
        "h",
        "e"
      ],
      [
        "Ġ",
        "a"
      ],
      [
        "Ġ",
        "s"
      ],
      [
        "n",
        "d"
      ],
      [
        "Ġ",
        "w"
      ],
      [
        "Ġt",
        "he"
      ],
      [
        "e",
        "d"
      ],
      [
        "Ġ",
        "b"
      ],
      [
        "Ġt",
        "o"
      ],
      [
        "Ġa",
        "nd"
      ],
      [
        "Ġ",
        "h"
      ],
      [
        "Ġ",
        "f"
      ],
      [
        "i",
        "n"
      ],
      [
        "Ġ",
        "T"
      ],
      [
        "Ġw",
        "a"
      ],
      [
        "r",
        "e"
      ],
      [
        "i",
        "t"
      ],
      [
        "o",
        "u"
      ],
      [
        "Ġ",
        "l"
      ],
      [
        "Ġ",
        "d"
      ],
      [
        "Ġ",
        "c"
      ],
      [
        "Ġ",
        "p"
      ],
      [
        "a",
        "y"
      ],
      [
        "Ġ",
        "m"
      ],
      [
        "e",
        "r"
      ],
      [
        "Ġwa",
        "s"
      ],
      [
        "o",
        "m"
      ],
      [
        "ĠT",
        "he"
      ],
      [
        "Ġ",
        "he"
      ],
      [
        "i",
        "s"
      ],
      [
        "a",
        "r"
      ],
      [
        "Ġ",
        "n"
      ],
      [
        "i",
        "m"
      ],
      [
        "o",
        "n"
      ],
      [
        "Ġs",
        "a"
      ],
      [
        "i",
        "d"
      ],
      [
        "l",
        "l"
      ],
      [
        "Ġh",
        "a"
      ],
      [
        "Ġ",
        "g"
      ],
      [
        "a",
        "t"
      ],
      [
        "Ġ",
        "S"
      ],
      [
        "in",
        "g"
      ],
      [
        "o",
        "t"
      ],
      [
        "e",
        "n"
      ],
      [
        "a",
        "n"
      ],
      [
        "l",
        "e"
      ],
      [
        "o",
        "r"
      ],
      [
        "e",
        "nd"
      ],
      [
        "i",
        "r"
      ],
      [
        "o",
        "f"
      ],
      [
        "a",
        "m"
      ],
      [
        "e",
        "t"
      ],
      [
        "Ġ",
        "H"
      ],
      [
        "Ġ",
        "it"
      ],
      [
        "Ġt",
        "h"
      ],
      [
        "i",
        "g"
      ],
      [
        "ĠThe",
        "y"
      ],
      [
        "Ġ",
        "in"
      ],
      [
        "i",
        "l"
      ],
      [
        "Ġp",
        "l"
      ],
      [
        "ĠH",
        "e"
      ],
      [
        "Ġ",
        "\""
      ],
      [
        "o",
        "w"
      ],
      [
        "v",
        "er"
      ],
      [
        "r",
        "i"
      ],
      [
        "u",
        "t"
      ],
      [
        "Ġb",
        "e"
      ],
      [
        "Ġ",
        "u"
      ],
      [
        "Ġsa",
        "id"
      ],
      [
        "Ġpl",
        "ay"
      ],
      [
        "it",
        "h"
      ],
      [
        "Ġd",
        "ay"
      ],
      [
        "Ġw",
        "ith"
      ],
      [
        "p",
        "p"
      ],
      [
        "O",
        "n"
      ],
      [
        "Ġ",
        "y"
      ],
      [
        "o",
        "o"
      ],
      [
        "k",
        "ed"
      ],
      [
        "Ġ",
        "r"
      ],
      [
        "Ġhe",
        "r"
      ],
      [
        "e",
        "x"
      ],
      [
        "c",
        "e"
      ],
      [
        "Ġ",
        "I"
      ],
      [
        "ĠS",
        "he"
      ],
      [
        "l",
        "d"
      ],
      [
        "ĠT",
        "im"
      ],
      [
        "Ġh",
        "is"
      ],
      [
        "Ġs",
        "t"
      ],
      [
        "k",
        "e"
      ],
      [
        "Ġb",
        "ig"
      ],
      [
        "n",
        "t"
      ],
      [
        "c",
        "k"
      ],
      [
        "Ġy",
        "ou"
      ],
      [
        "ver",
        "y"
      ],
      [
        "s",
        "t"
      ],
      [
        "v",
        "e"
      ],
      [
        "Ġ",
        "on"
      ],
      [
        "u",
        "n"
      ],
      [
        "Ġha",
        "pp"
      ],
      [
        "ri",
        "end"
      ],
      [
        "Ġf",
        "riend"
      ],
      [
        "a",
        "ll"
      ],
      [
        "il",
        "y"
      ],
      [
        "ex",
        "t"
      ],
      [
        "Ġ",
        "L"
      ],
      [
        "Ġthe",
        "y"
      ],
      [
        "of",
        "t"
      ],
      [
        "Ġw",
        "e"
      ],
      [
        "Ġha",
        "d"
      ],
      [
        "Ġn",
        "ot"
      ],
      [
        "Ġl",
        "i"
      ],
      [
        "Ġu",
        "p"
      ],
      [
        "he",
        "r"
      ],
      [
        "Ġwa",
        "nt"
      ],
      [
        "Ġ",
        "of"
      ],
      [
        "a",
        "d"
      ],
      [
        "it",
        "t"
      ],
      [
        "<",
        "|"
      ],
      [
        "|",
        ">"
      ],
      [
        "end",
        "oft"
      ],
      [
        "endoft",
        "ext"
      ],
      [
        "s",
        "e"
      ],
      [
        "Ġ",
        "B"
      ],
      [
        "Ġd",
        "o"
      ],
      [
        "Ġ",
        "e"
      ],
      [
        "Ġhapp",
        "y"
      ],
      [
        "en",
        "t"
      ],
      [
        "Ġ",
        "very"
      ],
      [
        "Ġ",
        "M"
      ],
      [
        "e",
        "s"
      ],
      [
        "Ġth",
        "at"
      ],
      [
        "Ġsa",
        "w"
      ],
      [
        "On",
        "e"
      ],
      [
        "'",
        "s"
      ],
      [
        "ou",
        "ld"
      ],
      [
        "Ġm",
        "om"
      ],
      [
        "Ġf",
        "or"
      ],
      [
        "Ġs",
        "h"
      ],
      [
        "itt",
        "le"
      ],
      [
        "Ġl",
        "ittle"
      ],
      [
        "Ġs",
        "he"
      ],
      [
        "c",
        "h"
      ],
      [
        "im",
        "e"
      ],
      [
        "Ġn",
        "am"
      ],
      [
        ".",
        "\""
      ],
      [
        "Ġt",
        "ime"
      ],
      [
        "Ġ",
        "k"
      ],
      [
        "ou",
        "nd"
      ],
      [
        "Ġs",
        "o"
      ],
      [
        "Ġthe",
        "re"
      ],
      [
        "Ġnam",
        "ed"
      ],
      [
        "Ġs",
        "m"
      ],
      [
        "Ġb",
        "o"
      ],
      [
        "Ġwe",
        "re"
      ],
      [
        "ĠL",
        "ily"
      ],
      [
        "Ġn",
        "e"
      ],
      [
        "Ġwant",
        "ed"
      ],
      [
        "Ġb",
        "ut"
      ],
      [
        "ou",
        "t"
      ],
      [
        "T",
        "he"
      ],
      [
        "Ġfriend",
        "s"
      ],
      [
        "v",
        "ed"
      ],
      [
        "!",
        "\""
      ],
      [
        "h",
        "t"
      ],
      [
        "ĠT",
        "om"
      ],
      [
        "ir",
        "d"
      ],
      [
        "e",
        "l"
      ],
      [
        "Ġb",
        "ird"
      ],
      [
        "a",
        "l"
      ],
      [
        "Ġa",
        "n"
      ],
      [
        "a",
        "ke"
      ],
      [
        "Ġto",
        "o"
      ],
      [
        "om",
        "e"
      ],
      [
        "ĠI",
        "t"
      ],
      [
        "u",
        "g"
      ],
      [
        "id",
        "e"
      ],
      [
        "Ġw",
        "ent"
      ],
      [
        "Ġw",
        "h"
      ],
      [
        "Ġhe",
        "l"
      ],
      [
        "On",
        "ce"
      ],
      [
        "Ġ",
        "is"
      ],
      [
        "Ġa",
        "ll"
      ],
      [
        "Ġhel",
        "p"
      ],
      [
        "u",
        "e"
      ],
      [
        "Ġl",
        "oo"
      ],
      [
        "Ġl",
        "o"
      ],
      [
        "t",
        "er"
      ],
      [
        "Ġ",
        "A"
      ],
      [
        "Ġup",
        "on"
      ],
      [
        "r",
        "y"
      ],
      [
        "o",
        "re"
      ],
      [
        "i",
        "nd"
      ],
      [
        "Ġf",
        "un"
      ],
      [
        "g",
        "et"
      ],
      [
        "Ġto",
        "y"
      ],
      [
        "i",
        "ll"
      ],
      [
        "am",
        "e"
      ],
      [
        "Ġa",
        "s"
      ],
      [
        "Ġa",
        "t"
      ],
      [
        "r",
        "a"
      ],
      [
        "Ġ",
        "j"
      ],
      [
        "Ġd",
        "id"
      ],
      [
        "get",
        "her"
      ],
      [
        "Ġ",
        "re"
      ],
      [
        "u",
        "r"
      ],
      [
        "Ġ",
        "o"
      ],
      [
        "Ġs",
        "e"
      ],
      [
        "Ġto",
        "gether"
      ],
      [
        "a",
        "ck"
      ],
      [
        "Ġc",
        "at"
      ],
      [
        "l",
        "y"
      ],
      [
        "Ġt",
        "re"
      ],
      [
        "oo",
        "d"
      ],
      [
        "i",
        "c"
      ],
      [
        "t",
        "ed"
      ],
      [
        "Ġdo",
        "g"
      ],
      [
        "Ġc",
        "ould"
      ],
      [
        "Ġc",
        "an"
      ],
      [
        "Ġthe",
        "ir"
      ],
      [
        "ar",
        "d"
      ],
      [
        "e",
        "c"
      ],
      [
        "ar",
        "k"
      ],
      [
        "Ġg",
        "ir"
      ],
      [
        "Ġplay",
        "ed"
      ],
      [
        "Ġh",
        "im"
      ],
      [
        "Ġb",
        "all"
      ],
      [
        "?",
        "\""
      ],
      [
        "Ġgir",
        "l"
      ],
      [
        "Ġr",
        "o"
      ],
      [
        "w",
        "ay"
      ],
      [
        "Ġg",
        "o"
      ],
      [
        "he",
        "d"
      ],
      [
        "m",
        "y"
      ],
      [
        "Ġa",
        "re"
      ],
      [
        "Ġ",
        "out"
      ],
      [
        "Ġl",
        "e"
      ],
      [
        "Ġf",
        "r"
      ],
      [
        "a",
        "in"
      ],
      [
        "Ġk",
        "n"
      ],
      [
        "he",
        "n"
      ],
      [
        "Ġthe",
        "m"
      ],
      [
        "u",
        "m"
      ],
      [
        "'",
        "t"
      ],
      [
        "a",
        "x"
      ],
      [
        "Ġsa",
        "d"
      ],
      [
        "u",
        "l"
      ],
      [
        "Ġbo",
        "y"
      ],
      [
        "Ġtre",
        "e"
      ],
      [
        "ot",
        "her"
      ],
      [
        "Ġha",
        "ve"
      ],
      [
        "Ġm",
        "an"
      ],
      [
        "Ġc",
        "l"
      ],
      [
        "Ġlo",
        "ved"
      ],
      [
        "Ġloo",
        "ked"
      ],
      [
        "ou",
        "g"
      ],
      [
        "Ġf",
        "ound"
      ],
      [
        "Ġs",
        "p"
      ],
      [
        "Ġst",
        "ar"
      ],
      [
        "ĠS",
        "ue"
      ],
      [
        "on",
        "e"
      ],
      [
        "h",
        "ing"
      ],
      [
        "Ġs",
        "c"
      ],
      [
        "Ġb",
        "ack"
      ],
      [
        "ow",
        "n"
      ],
      [
        "ĠM",
        "ax"
      ],
      [
        "a",
        "re"
      ],
      [
        "Ġli",
        "ke"
      ],
      [
        "f",
        "ul"
      ],
      [
        "s",
        "ide"
      ],
      [
        "Ġm",
        "e"
      ],
      [
        "Ġbe",
        "c"
      ],
      [
        "Ġp",
        "ark"
      ],
      [
        "ig",
        "ht"
      ],
      [
        "on",
        "g"
      ],
      [
        "Ġc",
        "ar"
      ],
      [
        "o",
        "p"
      ],
      [
        "el",
        "t"
      ],
      [
        "Ġ",
        "One"
      ],
      [
        "Ġli",
        "ked"
      ],
      [
        "Ġw",
        "ould"
      ],
      [
        "Ġm",
        "ake"
      ],
      [
        "r",
        "ound"
      ],
      [
        "Ġl",
        "a"
      ],
      [
        "Ġf",
        "a"
      ],
      [
        "Ġf",
        "elt"
      ],
      [
        "Y",
        "ou"
      ],
      [
        "Ġ",
        "W"
      ],
      [
        "e",
        "ll"
      ],
      [
        "Ġse",
        "e"
      ],
      [
        "ĠB",
        "ut"
      ],
      [
        "om",
        "et"
      ],
      [
        "Ġas",
        "ked"
      ],
      [
        "a",
        "g"
      ],
      [
        "Ġne",
        "w"
      ],
      [
        "Ġn",
        "o"
      ],
      [
        "i",
        "ce"
      ],
      [
        "ĠS",
        "am"
      ],
      [
        "ou",
        "se"
      ],
      [
        "Ġstar",
        "ted"
      ],
      [
        "ar",
        "ed"
      ],
      [
        "Ġc",
        "ame"
      ],
      [
        "ĠB",
        "en"
      ],
      [
        "Ġa",
        "l"
      ],
      [
        "Ġ",
        "other"
      ],
      [
        "oug",
        "ht"
      ],
      [
        "il",
        "ed"
      ],
      [
        "Ġs",
        "omet"
      ],
      [
        "Ġa",
        "g"
      ],
      [
        "Ġg",
        "ood"
      ],
      [
        "Ġsm",
        "all"
      ],
      [
        "s",
        "s"
      ],
      [
        "Ġb",
        "r"
      ],
      [
        "Ġsm",
        "iled"
      ],
      [
        "Ġs",
        "ay"
      ],
      [
        "ri",
        "ed"
      ],
      [
        "ad",
        "e"
      ],
      [
        "ing",
        "s"
      ],
      [
        "Ġ",
        "Ċ"
      ],
      [
        "o",
        "b"
      ],
      [
        "p",
        "ot"
      ],
      [
        "Ġw",
        "or"
      ],
      [
        "Ġf",
        "ind"
      ],
      [
        "i",
        "a"
      ],
      [
        "Ġa",
        "way"
      ],
      [
        "t",
        "y"
      ],
      [
        "Ġp",
        "ut"
      ],
      [
        "Ġ",
        "ex"
      ],
      [
        "Ġwh",
        "at"
      ],
      [
        "Ġsomet",
        "hing"
      ],
      [
        "Ġfr",
        "om"
      ],
      [
        "Ġm",
        "ade"
      ],
      [
        "Ġth",
        "ought"
      ],
      [
        "en",
        "ed"
      ],
      [
        "Ġh",
        "ome"
      ],
      [
        "Ġplay",
        "ing"
      ],
      [
        "Ġc",
        "o"
      ],
      [
        "oo",
        "k"
      ],
      [
        "Ġe",
        "very"
      ],
      [
        "Ġwa",
        "l"
      ],
      [
        "Ġm",
        "u"
      ],
      [
        "u",
        "c"
      ],
      [
        "a",
        "ch"
      ],
      [
        "ar",
        "n"
      ],
      [
        "ĠS",
        "pot"
      ],
      [
        "Ġr",
        "an"
      ],
      [
        "i",
        "le"
      ],
      [
        "Ġ",
        "F"
      ],
      [
        "i",
        "e"
      ],
      [
        "Ġ",
        "J"
      ],
      [
        "a",
        "ve"
      ],
      [
        "Ġag",
        "ain"
      ],
      [
        "Ġs",
        "ome"
      ],
      [
        "Ġla",
        "ug"
      ],
      [
        "d",
        "d"
      ],
      [
        "Ġh",
        "ouse"
      ],
      [
        "Ġd",
        "own"
      ],
      [
        "Ġf",
        "l"
      ],
      [
        "k",
        "ing"
      ],
      [
        "Ġtoo",
        "k"
      ],
      [
        "Ġsc",
        "ared"
      ],
      [
        "Ġp",
        "r"
      ],
      [
        "n",
        "y"
      ],
      [
        "u",
        "re"
      ],
      [
        "Ġtoy",
        "s"
      ],
      [
        "Ġle",
        "arn"
      ],
      [
        "Ġ",
        "You"
      ],
      [
        "i",
        "f"
      ],
      [
        "Ġw",
        "ill"
      ],
      [
        "Ġbo",
        "x"
      ],
      [
        "i",
        "ck"
      ],
      [
        "re",
        "t"
      ],
      [
        "a",
        "b"
      ],
      [
        "e",
        "p"
      ],
      [
        "Ġm",
        "y"
      ],
      [
        "Ġa",
        "round"
      ],
      [
        "Ġth",
        "ings"
      ],
      [
        "Ġyou",
        "r"
      ],
      [
        "ou",
        "d"
      ],
      [
        "Ġb",
        "l"
      ],
      [
        "u",
        "ck"
      ],
      [
        "Ġw",
        "hen"
      ],
      [
        "is",
        "h"
      ],
      [
        "Ġli",
        "ved"
      ],
      [
        "Ġf",
        "e"
      ],
      [
        "Ġthe",
        "n"
      ],
      [
        "Ġs",
        "un"
      ],
      [
        "a",
        "s"
      ],
      [
        "Ġs",
        "w"
      ],
      [
        ",",
        "\""
      ],
      [
        "Ġc",
        "h"
      ],
      [
        "u",
        "s"
      ],
      [
        "pp",
        "ed"
      ],
      [
        "Ġa",
        "b"
      ],
      [
        "ĠM",
        "ia"
      ],
      [
        "an",
        "k"
      ],
      [
        "Ġg",
        "et"
      ],
      [
        "uc",
        "y"
      ],
      [
        "T",
        "im"
      ],
      [
        "um",
        "p"
      ],
      [
        "T",
        "h"
      ],
      [
        "Ġl",
        "ot"
      ],
      [
        "is",
        "t"
      ],
      [
        "ot",
        "h"
      ],
      [
        "Ġt",
        "ried"
      ],
      [
        "a",
        "p"
      ],
      [
        "Ġkn",
        "ow"
      ],
      [
        "Ġsay",
        "s"
      ],
      [
        "Ġg",
        "ot"
      ],
      [
        "it",
        "ed"
      ],
      [
        "Ġwh",
        "o"
      ],
      [
        "Ġkn",
        "e"
      ],
      [
        "u",
        "st"
      ],
      [
        "Ġman",
        "y"
      ],
      [
        "nd",
        "er"
      ],
      [
        "Ġin",
        "t"
      ],
      [
        "Ġab",
        "out"
      ],
      [
        "L",
        "ily"
      ],
      [
        "Ġp",
        "ret"
      ],
      [
        "Ġd",
        "ec"
      ],
      [
        "Ġan",
        "y"
      ],
      [
        "Ġr",
        "ed"
      ],
      [
        "Ġ",
        "D"
      ],
      [
        "i",
        "ve"
      ],
      [
        "Ġkne",
        "w"
      ],
      [
        "a",
        "ce"
      ],
      [
        "ou",
        "s"
      ],
      [
        "Ġm",
        "ore"
      ],
      [
        "is",
        "e"
      ],
      [
        "Ġ",
        "v"
      ],
      [
        "Ġc",
        "are"
      ],
      [
        "all",
        "y"
      ],
      [
        "Ġp",
        "ic"
      ],
      [
        "a",
        "u"
      ],
      [
        "q",
        "u"
      ],
      [
        "Ġh",
        "ug"
      ],
      [
        "ĠL",
        "ucy"
      ],
      [
        "Ġlearn",
        "ed"
      ],
      [
        "Ġp",
        "o"
      ],
      [
        "Ġwa",
        "ter"
      ],
      [
        "f",
        "ter"
      ],
      [
        "Ġbec",
        "ame"
      ],
      [
        "Ġbe",
        "st"
      ],
      [
        "au",
        "se"
      ],
      [
        "Ġo",
        "p"
      ],
      [
        "Ġg",
        "re"
      ],
      [
        "Ġex",
        "c"
      ],
      [
        "ur",
        "p"
      ],
      [
        "way",
        "s"
      ],
      [
        "â",
        "Ģ"
      ],
      [
        "Ġout",
        "side"
      ],
      [
        "Ġlaug",
        "hed"
      ],
      [
        "Ġloo",
        "k"
      ],
      [
        "Ġal",
        "ways"
      ],
      [
        "Ġdec",
        "id"
      ],
      [
        "Ġsh",
        "ow"
      ],
      [
        "Ġu",
        "n"
      ],
      [
        "an",
        "t"
      ],
      [
        "ĠB",
        "ob"
      ],
      [
        "Ġro",
        "om"
      ],
      [
        "f",
        "e"
      ],
      [
        "Ġdecid",
        "ed"
      ],
      [
        "Ġh",
        "o"
      ],
      [
        "Ġbec",
        "ause"
      ],
      [
        "Ġint",
        "o"
      ],
      [
        "ĠS",
        "o"
      ],
      [
        "Ġe",
        "at"
      ],
      [
        "it",
        "e"
      ],
      [
        "Ġj",
        "ump"
      ],
      [
        "ĠA",
        "nd"
      ],
      [
        "Ġp",
        "e"
      ],
      [
        "Ġb",
        "oth"
      ],
      [
        "er",
        "s"
      ],
      [
        "ĠM",
        "om"
      ],
      [
        "Ġd",
        "ad"
      ],
      [
        "The",
        "y"
      ],
      [
        "u",
        "dd"
      ],
      [
        "Ġ",
        "ke"
      ],
      [
        "Ġon",
        "e"
      ],
      [
        "n",
        "n"
      ],
      [
        "Ġth",
        "is"
      ],
      [
        "Ġexc",
        "ited"
      ],
      [
        "Ġfa",
        "st"
      ],
      [
        "Ġn",
        "ice"
      ],
      [
        "Ġ",
        "E"
      ],
      [
        "Ġfe",
        "el"
      ],
      [
        "T",
        "om"
      ],
      [
        "Y",
        "es"
      ],
      [
        "Ġr",
        "un"
      ],
      [
        "Ġl",
        "ong"
      ],
      [
        "Ġto",
        "ld"
      ],
      [
        "Ġs",
        "k"
      ],
      [
        "Ġa",
        "m"
      ],
      [
        "urp",
        "r"
      ],
      [
        "ou",
        "r"
      ],
      [
        "Ġin",
        "side"
      ],
      [
        "u",
        "ll"
      ],
      [
        "Ġt",
        "r"
      ],
      [
        "Ġs",
        "urpr"
      ],
      [
        "Ġm",
        "o"
      ],
      [
        "in",
        "k"
      ],
      [
        "Ġpret",
        "ty"
      ],
      [
        "in",
        "y"
      ],
      [
        "Ġs",
        "or"
      ],
      [
        "W",
        "h"
      ],
      [
        "Ġt",
        "ake"
      ],
      [
        "o",
        "g"
      ],
      [
        "Ġs",
        "l"
      ],
      [
        "Ġe",
        "ach"
      ],
      [
        "Ġg",
        "ave"
      ],
      [
        "Ġmu",
        "ch"
      ],
      [
        "Ġg",
        "ra"
      ],
      [
        "le",
        "w"
      ],
      [
        "nn",
        "a"
      ],
      [
        "Ġro",
        "ck"
      ],
      [
        "Ġh",
        "ow"
      ],
      [
        "Ġst",
        "r"
      ],
      [
        "ar",
        "a"
      ],
      [
        "im",
        "al"
      ],
      [
        "Ġan",
        "imal"
      ],
      [
        "g",
        "ed"
      ],
      [
        "Ġne",
        "ed"
      ],
      [
        "Ġth",
        "an"
      ],
      [
        "B",
        "ut"
      ],
      [
        "v",
        "en"
      ],
      [
        "et",
        "ter"
      ],
      [
        "Ġto",
        "w"
      ],
      [
        "Ġ",
        "or"
      ],
      [
        "Ġ",
        "C"
      ],
      [
        "Ġu",
        "nder"
      ],
      [
        "es",
        "s"
      ],
      [
        "Ġo",
        "ld"
      ],
      [
        "Ġsor",
        "ry"
      ],
      [
        "g",
        "e"
      ],
      [
        "is",
        "ed"
      ],
      [
        "r",
        "o"
      ],
      [
        "ur",
        "t"
      ],
      [
        "Ġc",
        "le"
      ],
      [
        "Ġf",
        "ish"
      ],
      [
        "Ġwal",
        "ked"
      ],
      [
        "Ġcl",
        "o"
      ],
      [
        "a",
        "nd"
      ],
      [
        "Ġbe",
        "ar"
      ],
      [
        "a",
        "se"
      ],
      [
        "a",
        "st"
      ],
      [
        "Ġha",
        "nd"
      ],
      [
        "ur",
        "n"
      ],
      [
        "ĠW",
        "e"
      ],
      [
        "Ġk",
        "ind"
      ],
      [
        "ĠH",
        "is"
      ],
      [
        "he",
        "re"
      ],
      [
        "Ġhapp",
        "ened"
      ],
      [
        "Ġj",
        "ust"
      ],
      [
        "Ġfl",
        "ow"
      ],
      [
        "Ġf",
        "ood"
      ],
      [
        "Ġl",
        "ist"
      ],
      [
        "Ġdid",
        "n"
      ],
      [
        "Ġt",
        "e"
      ],
      [
        "Ġanimal",
        "s"
      ],
      [
        "Ġh",
        "ig"
      ],
      [
        "p",
        "l"
      ],
      [
        "Ġne",
        "ar"
      ],
      [
        "Ġwa",
        "t"
      ],
      [
        "Ġ",
        "ide"
      ],
      [
        "Ġt",
        "ry"
      ],
      [
        "c",
        "hed"
      ],
      [
        "Ġsk",
        "y"
      ],
      [
        "in",
        "e"
      ],
      [
        "Ġs",
        "n"
      ],
      [
        "v",
        "ing"
      ],
      [
        "Ġf",
        "i"
      ],
      [
        "r",
        "om"
      ],
      [
        "Ġu",
        "s"
      ],
      [
        "Ġide",
        "a"
      ],
      [
        "Ġb",
        "etter"
      ],
      [
        "ĠA",
        "my"
      ],
      [
        "Ġb",
        "ug"
      ],
      [
        "Ġhe",
        "ard"
      ],
      [
        "g",
        "ry"
      ],
      [
        "Ġit",
        "s"
      ],
      [
        "Ġt",
        "w"
      ],
      [
        "Ġl",
        "et"
      ],
      [
        "p",
        "ec"
      ],
      [
        "at",
        "e"
      ],
      [
        "ab",
        "le"
      ],
      [
        "f",
        "f"
      ],
      [
        "Ġ",
        "en"
      ],
      [
        "Ġcare",
        "ful"
      ],
      [
        "Ġsh",
        "are"
      ],
      [
        "Ġ",
        "if"
      ],
      [
        "Th",
        "ank"
      ],
      [
        "M",
        "om"
      ],
      [
        "Ġf",
        "ly"
      ],
      [
        "Ġst",
        "or"
      ],
      [
        "i",
        "al"
      ],
      [
        "Ġf",
        "lew"
      ],
      [
        "m",
        "ore"
      ],
      [
        "Ġany",
        "more"
      ],
      [
        "ĠT",
        "h"
      ],
      [
        "Ġsp",
        "ec"
      ],
      [
        "Ġspec",
        "ial"
      ],
      [
        "i",
        "on"
      ],
      [
        "Ġc",
        "om"
      ],
      [
        "Ġlot",
        "s"
      ],
      [
        "Ġne",
        "ver"
      ],
      [
        "Ġb",
        "y"
      ],
      [
        "l",
        "f"
      ],
      [
        "re",
        "am"
      ],
      [
        "Ġd",
        "an"
      ],
      [
        "Ġb",
        "u"
      ],
      [
        "Ġf",
        "o"
      ],
      [
        "Ġw",
        "ind"
      ],
      [
        "Ġd",
        "on"
      ],
      [
        "Ġt",
        "al"
      ],
      [
        "Ġcle",
        "an"
      ],
      [
        "or",
        "t"
      ],
      [
        "Ġg",
        "r"
      ],
      [
        "Ġlo",
        "ve"
      ],
      [
        "r",
        "m"
      ],
      [
        "b",
        "er"
      ],
      [
        "Ġ",
        "end"
      ],
      [
        "ĠThe",
        "n"
      ],
      [
        "op",
        "le"
      ],
      [
        "Ġe",
        "ven"
      ],
      [
        "Ġm",
        "ag"
      ],
      [
        "Ġh",
        "ard"
      ],
      [
        "Ġsh",
        "iny"
      ],
      [
        "udd",
        "en"
      ],
      [
        "Ġf",
        "ore"
      ],
      [
        "Ġo",
        "ver"
      ],
      [
        "Ġc",
        "ake"
      ],
      [
        "a",
        "k"
      ],
      [
        "Ġb",
        "ook"
      ],
      [
        "Ġco",
        "l"
      ],
      [
        "Ġt",
        "urn"
      ],
      [
        "Ġf",
        "am"
      ],
      [
        "Ġb",
        "ad"
      ],
      [
        "Ġsa",
        "fe"
      ],
      [
        "Ġa",
        "fter"
      ],
      [
        "ad",
        "y"
      ],
      [
        "ĠA",
        "nna"
      ],
      [
        "udden",
        "ly"
      ],
      [
        "Ġpe",
        "ople"
      ],
      [
        "Ġpr",
        "oud"
      ],
      [
        "ĠE",
        "very"
      ],
      [
        "Ġsurpr",
        "ised"
      ],
      [
        "pec",
        "ted"
      ],
      [
        "L",
        "et"
      ],
      [
        "Ġhig",
        "h"
      ],
      [
        "Ġc",
        "u"
      ],
      [
        "Ġh",
        "urt"
      ],
      [
        "Ġc",
        "ome"
      ],
      [
        "im",
        "b"
      ],
      [
        "ard",
        "en"
      ],
      [
        "Ġdo",
        "or"
      ],
      [
        "Ġg",
        "arden"
      ],
      [
        "b",
        "b"
      ],
      [
        "Ġg",
        "round"
      ],
      [
        "Ġop",
        "ened"
      ],
      [
        "Ġpic",
        "ked"
      ],
      [
        "Ġl",
        "oud"
      ],
      [
        "Ġcl",
        "imb"
      ],
      [
        "ex",
        "pected"
      ],
      [
        "Ġun",
        "expected"
      ],
      [
        "Ġg",
        "l"
      ],
      [
        "Ġc",
        "he"
      ],
      [
        "il",
        "d"
      ],
      [
        "Ġ",
        "im"
      ],
      [
        "A",
        "s"
      ],
      [
        "Ġg",
        "ive"
      ],
      [
        "Ġwa",
        "y"
      ],
      [
        "a",
        "il"
      ],
      [
        "'",
        "m"
      ],
      [
        "Ġthan",
        "ked"
      ],
      [
        "Ġcol",
        "or"
      ],
      [
        "Ġbl",
        "ue"
      ],
      [
        "Ġst",
        "ill"
      ],
      [
        "Ġe",
        "ver"
      ],
      [
        "Ġhug",
        "ged"
      ],
      [
        "ĠF",
        "rom"
      ],
      [
        "Ġc",
        "all"
      ],
      [
        "Ġf",
        "ar"
      ],
      [
        "i",
        "p"
      ],
      [
        "ĠH",
        "er"
      ],
      [
        "ĠS",
        "ara"
      ],
      [
        "ĠW",
        "hen"
      ],
      [
        "N",
        "o"
      ],
      [
        "Ġof",
        "f"
      ],
      [
        "Ġmag",
        "ic"
      ],
      [
        "i",
        "z"
      ],
      [
        "oug",
        "h"
      ],
      [
        "ag",
        "e"
      ],
      [
        "um",
        "my"
      ],
      [
        "Ġ",
        "K"
      ],
      [
        "Ġjump",
        "ed"
      ],
      [
        "Ġsh",
        "ould"
      ],
      [
        "Ġfam",
        "ily"
      ],
      [
        "Ġp",
        "ar"
      ],
      [
        "oo",
        "l"
      ],
      [
        "Ġk",
        "id"
      ],
      [
        "Ġsm",
        "ile"
      ],
      [
        "he",
        "s"
      ],
      [
        "u",
        "ff"
      ],
      [
        "Ġpl",
        "ace"
      ],
      [
        "k",
        "ay"
      ],
      [
        "Ġwal",
        "k"
      ],
      [
        "Ġn",
        "ow"
      ],
      [
        "c",
        "t"
      ],
      [
        "ĠI",
        "n"
      ],
      [
        "Ġgre",
        "at"
      ],
      [
        "e",
        "m"
      ],
      [
        "Ġ",
        "qu"
      ],
      [
        "le",
        "s"
      ],
      [
        "Ġstr",
        "ong"
      ],
      [
        "Ġst",
        "ay"
      ],
      [
        "Ġu",
        "nt"
      ],
      [
        "Ġst",
        "o"
      ],
      [
        "a",
        "ut"
      ],
      [
        "Ġfore",
        "st"
      ],
      [
        "t",
        "ure"
      ],
      [
        "an",
        "e"
      ],
      [
        "Ġb",
        "ra"
      ],
      [
        "itt",
        "y"
      ],
      [
        "Ġ",
        "P"
      ],
      [
        "Ġfr",
        "og"
      ],
      [
        "Ġbr",
        "o"
      ],
      [
        "Ġunt",
        "il"
      ],
      [
        "o",
        "on"
      ],
      [
        "Ġbe",
        "aut"
      ],
      [
        "d",
        "y"
      ],
      [
        "Ġs",
        "qu"
      ],
      [
        "Ġst",
        "ick"
      ],
      [
        "Ġn",
        "ext"
      ],
      [
        "Ġbo",
        "at"
      ],
      [
        "le",
        "ase"
      ],
      [
        "n",
        "ing"
      ],
      [
        "Ġhapp",
        "ily"
      ],
      [
        "Ġlist",
        "en"
      ],
      [
        "a",
        "king"
      ],
      [
        "Ġkid",
        "s"
      ],
      [
        "Ġt",
        "ra"
      ],
      [
        "i",
        "es"
      ],
      [
        "i",
        "ful"
      ],
      [
        "Ġbeaut",
        "iful"
      ],
      [
        "Ġa",
        "pp"
      ],
      [
        "t",
        "h"
      ],
      [
        "Ġhelp",
        "ed"
      ],
      [
        "Ġd",
        "ra"
      ],
      [
        "Ġshow",
        "ed"
      ],
      [
        "Ġclo",
        "s"
      ],
      [
        "b",
        "e"
      ],
      [
        "Ġim",
        "p"
      ],
      [
        "Ġstor",
        "y"
      ],
      [
        "un",
        "ny"
      ],
      [
        "o",
        "y"
      ],
      [
        "Ġwh",
        "ile"
      ],
      [
        "Ġtow",
        "n"
      ],
      [
        "re",
        "l"
      ],
      [
        "p",
        "t"
      ],
      [
        "Ġr",
        "ain"
      ],
      [
        "re",
        "ss"
      ],
      [
        "Ġpic",
        "ture"
      ],
      [
        "Ġbe",
        "ing"
      ],
      [
        "Ġre",
        "m"
      ],
      [
        "Ġevery",
        "one"
      ],
      [
        "I",
        "t"
      ],
      [
        "ar",
        "y"
      ],
      [
        "re",
        "e"
      ],
      [
        "Ġm",
        "or"
      ],
      [
        "Ġha",
        "t"
      ],
      [
        "Ġcall",
        "ed"
      ],
      [
        "Ġm",
        "et"
      ],
      [
        "Ġsto",
        "pped"
      ],
      [
        "Ġa",
        "d"
      ],
      [
        "Ġg",
        "ame"
      ],
      [
        "N",
        "ow"
      ],
      [
        "H",
        "e"
      ],
      [
        "Ġw",
        "o"
      ],
      [
        "C",
        "an"
      ],
      [
        "Ġan",
        "gry"
      ],
      [
        "g",
        "er"
      ],
      [
        "uff",
        "y"
      ],
      [
        "Ġs",
        "oft"
      ],
      [
        "Ġop",
        "en"
      ],
      [
        "Ġtr",
        "uck"
      ],
      [
        "Ġke",
        "ep"
      ],
      [
        "W",
        "hen"
      ],
      [
        "Ġc",
        "ry"
      ],
      [
        "Ġy",
        "ummy"
      ],
      [
        "Ġlo",
        "st"
      ],
      [
        "Ġb",
        "ed"
      ],
      [
        "ĠL",
        "et"
      ],
      [
        "ĠS",
        "ally"
      ],
      [
        "Ġwa",
        "rm"
      ],
      [
        "b",
        "y"
      ],
      [
        "v",
        "ent"
      ],
      [
        "Ġbra",
        "ve"
      ],
      [
        "Ġm",
        "ouse"
      ],
      [
        "ĠW",
        "h"
      ],
      [
        "Ġat",
        "e"
      ],
      [
        "ĠK",
        "itty"
      ],
      [
        "is",
        "hed"
      ],
      [
        "Ġd",
        "e"
      ],
      [
        "f",
        "ore"
      ],
      [
        "Ġdo",
        "ll"
      ],
      [
        "s",
        "o"
      ],
      [
        "Ġcould",
        "n"
      ],
      [
        "Ġwat",
        "ch"
      ],
      [
        "Ġle",
        "ave"
      ],
      [
        "Ġal",
        "so"
      ],
      [
        "dd",
        "ed"
      ],
      [
        "Ġf",
        "ell"
      ],
      [
        "Ġgre",
        "en"
      ],
      [
        "Ġfa",
        "ce"
      ],
      [
        "Ġtw",
        "o"
      ],
      [
        "g",
        "an"
      ],
      [
        "is",
        "s"
      ],
      [
        "Ġflow",
        "ers"
      ],
      [
        "b",
        "it"
      ],
      [
        "Wh",
        "at"
      ],
      [
        "Ġ",
        "R"
      ],
      [
        "b",
        "le"
      ],
      [
        "Ġno",
        "ise"
      ],
      [
        "ab",
        "bit"
      ],
      [
        "ir",
        "st"
      ],
      [
        "ow",
        "l"
      ],
      [
        "Ġw",
        "here"
      ],
      [
        "a",
        "z"
      ],
      [
        "o",
        "ck"
      ],
      [
        "Ġso",
        "on"
      ],
      [
        "se",
        "lf"
      ],
      [
        "Ġsl",
        "ide"
      ],
      [
        "Ġr",
        "abbit"
      ],
      [
        "Ġho",
        "le"
      ],
      [
        "l",
        "uffy"
      ],
      [
        "Ġbe",
        "fore"
      ],
      [
        "ir",
        "rel"
      ],
      [
        "Ġp",
        "us"
      ],
      [
        "ir",
        "ed"
      ],
      [
        "Ġsa",
        "t"
      ],
      [
        "ill",
        "y"
      ],
      [
        "Ġhe",
        "ar"
      ],
      [
        "Ġu",
        "se"
      ],
      [
        "âĢ",
        "Ŀ"
      ],
      [
        "H",
        "i"
      ],
      [
        "Ġp",
        "a"
      ],
      [
        "Ġke",
        "pt"
      ],
      [
        "âĢ",
        "ľ"
      ],
      [
        "Th",
        "at"
      ],
      [
        "Ġsqu",
        "irrel"
      ],
      [
        "e",
        "ar"
      ],
      [
        "The",
        "n"
      ],
      [
        "m",
        "a"
      ],
      [
        "Ġno",
        "dded"
      ],
      [
        "Ġex",
        "pl"
      ],
      [
        "Ġst",
        "ore"
      ],
      [
        "Ġc",
        "ook"
      ],
      [
        "Ġhand",
        "s"
      ],
      [
        "L",
        "ook"
      ],
      [
        "Ġbird",
        "s"
      ],
      [
        "Ġp",
        "ain"
      ],
      [
        "Ġgo",
        "ing"
      ],
      [
        "Ġfun",
        "ny"
      ],
      [
        "Ġha",
        "ving"
      ],
      [
        "d",
        "ay"
      ],
      [
        "Ġs",
        "ing"
      ],
      [
        "ay",
        "be"
      ],
      [
        "u",
        "ch"
      ],
      [
        "Ġe",
        "y"
      ],
      [
        "a",
        "ug"
      ],
      [
        "Ġcat",
        "ch"
      ],
      [
        "aug",
        "ht"
      ],
      [
        "ĠC",
        "an"
      ],
      [
        "ĠF",
        "luffy"
      ],
      [
        "u",
        "it"
      ],
      [
        "Ġy",
        "ell"
      ],
      [
        "Ġth",
        "ink"
      ],
      [
        "le",
        "ep"
      ],
      [
        "Ġc",
        "ra"
      ],
      [
        "Ġf",
        "in"
      ],
      [
        "B",
        "en"
      ],
      [
        "Ġb",
        "re"
      ],
      [
        "Ġfi",
        "x"
      ],
      [
        "Ġt",
        "ired"
      ],
      [
        "Ġb",
        "unny"
      ],
      [
        "Ġus",
        "ed"
      ],
      [
        "Ġloo",
        "king"
      ],
      [
        "Ġb",
        "us"
      ],
      [
        "an",
        "ge"
      ],
      [
        "a",
        "ir"
      ],
      [
        "Ġwor",
        "k"
      ],
      [
        "Ġw",
        "r"
      ],
      [
        "t",
        "ing"
      ],
      [
        "Ġ",
        "our"
      ],
      [
        "Ġp",
        "ull"
      ],
      [
        "W",
        "e"
      ],
      [
        "Ġth",
        "r"
      ],
      [
        "t",
        "hing"
      ],
      [
        "Ġ",
        "Now"
      ],
      [
        "Ġwa",
        "it"
      ],
      [
        "Ġk",
        "it"
      ],
      [
        "Ġs",
        "ound"
      ],
      [
        "Ġj",
        "o"
      ],
      [
        "Ġha",
        "s"
      ],
      [
        "Ġ",
        "G"
      ],
      [
        "Ġme",
        "an"
      ],
      [
        "Ġpo",
        "nd"
      ],
      [
        "em",
        "ber"
      ],
      [
        "Ġbe",
        "h"
      ],
      [
        "Ġd",
        "r"
      ],
      [
        "Ġsun",
        "ny"
      ],
      [
        "l",
        "ed"
      ],
      [
        "Ġother",
        "s"
      ],
      [
        "Ġas",
        "k"
      ],
      [
        "n",
        "g"
      ],
      [
        "c",
        "hen"
      ],
      [
        "Ġkit",
        "chen"
      ],
      [
        "Ġtal",
        "k"
      ],
      [
        "Ġfl",
        "o"
      ],
      [
        "Ġd",
        "if"
      ],
      [
        "re",
        "w"
      ],
      [
        "Ġp",
        "ie"
      ],
      [
        "ĠJ",
        "o"
      ],
      [
        "Ġhe",
        "ad"
      ],
      [
        "Ġre",
        "al"
      ],
      [
        "Ġf",
        "irst"
      ],
      [
        "Ġt",
        "ri"
      ],
      [
        "Ġmom",
        "my"
      ],
      [
        "Ġey",
        "es"
      ],
      [
        "ell",
        "o"
      ],
      [
        "Ġimp",
        "ort"
      ],
      [
        "H",
        "ello"
      ],
      [
        "Ġfa",
        "v"
      ],
      [
        "at",
        "h"
      ],
      [
        "j",
        "oy"
      ],
      [
        "Ġ",
        "z"
      ],
      [
        "Ġrem",
        "ember"
      ],
      [
        "Ġr",
        "ight"
      ],
      [
        "Ġflow",
        "er"
      ],
      [
        "Ġc",
        "on"
      ],
      [
        "Ġm",
        "ess"
      ],
      [
        "Ġpar",
        "ty"
      ],
      [
        "Ġco",
        "ld"
      ],
      [
        "ĠD",
        "o"
      ],
      [
        "Ġv",
        "o"
      ],
      [
        "Ġsw",
        "e"
      ],
      [
        "i",
        "ous"
      ],
      [
        "f",
        "t"
      ],
      [
        "Ġsa",
        "nd"
      ],
      [
        "Ġ",
        "âĢľ"
      ],
      [
        "a",
        "c"
      ],
      [
        "or",
        "n"
      ],
      [
        "Ġr",
        "ace"
      ],
      [
        "Ġcu",
        "ri"
      ],
      [
        "im",
        "es"
      ],
      [
        "Ġimport",
        "ant"
      ],
      [
        "Ġd",
        "uck"
      ],
      [
        "Ġmor",
        "al"
      ],
      [
        "Ġsh",
        "ared"
      ],
      [
        "z",
        "y"
      ],
      [
        "ou",
        "nt"
      ],
      [
        "ĠJ",
        "ack"
      ],
      [
        "Ġ",
        "ice"
      ],
      [
        "Ġo",
        "kay"
      ],
      [
        "Ġad",
        "vent"
      ],
      [
        "Ġwor",
        "ked"
      ],
      [
        "ll",
        "ow"
      ],
      [
        "A",
        "t"
      ],
      [
        "Ġen",
        "joy"
      ],
      [
        "Ġd",
        "ress"
      ],
      [
        "Ġbr",
        "ight"
      ],
      [
        "Ġm",
        "aking"
      ],
      [
        "Ġcuri",
        "ous"
      ],
      [
        "Ġ",
        "own"
      ],
      [
        "Ġt",
        "all"
      ],
      [
        "Ġd",
        "ir"
      ],
      [
        "Ġh",
        "op"
      ],
      [
        "re",
        "ed"
      ],
      [
        "Ġh",
        "id"
      ],
      [
        "Ġfav",
        "or"
      ],
      [
        "Ġ",
        "ri"
      ],
      [
        "h",
        "n"
      ],
      [
        "Ġs",
        "leep"
      ],
      [
        "Ġd",
        "is"
      ],
      [
        "W",
        "ow"
      ],
      [
        "Ġfavor",
        "ite"
      ],
      [
        "Ġth",
        "ing"
      ],
      [
        "Ġbe",
        "gan"
      ],
      [
        "Ġm",
        "on"
      ],
      [
        "Ġb",
        "ag"
      ],
      [
        "Ġh",
        "ill"
      ],
      [
        "D",
        "on"
      ],
      [
        "Ġcl",
        "a"
      ],
      [
        "Ġdra",
        "w"
      ],
      [
        "Ġre",
        "st"
      ],
      [
        "Ġhe",
        "re"
      ],
      [
        "Ġy",
        "ard"
      ],
      [
        "Ġt",
        "ell"
      ],
      [
        "ĠF",
        "in"
      ],
      [
        "st",
        "er"
      ],
      [
        "Ġwat",
        "ched"
      ],
      [
        "q",
        "ue"
      ],
      [
        "Ġfo",
        "llow"
      ],
      [
        "Ġmo",
        "ve"
      ],
      [
        "Ġbe",
        "l"
      ],
      [
        "ec",
        "t"
      ],
      [
        "Ġc",
        "ut"
      ],
      [
        "Ġn",
        "ight"
      ],
      [
        "Ġag",
        "reed"
      ],
      [
        "Ġp",
        "ick"
      ],
      [
        "c",
        "o"
      ],
      [
        "Ġbl",
        "ock"
      ],
      [
        "Ġh",
        "un"
      ],
      [
        "ap",
        "er"
      ],
      [
        "ll",
        "y"
      ],
      [
        "Ġst",
        "op"
      ],
      [
        "Ġbeh",
        "ind"
      ],
      [
        "ĠTh",
        "is"
      ],
      [
        "Ġsurpr",
        "ise"
      ],
      [
        "i",
        "ed"
      ],
      [
        "Ġsh",
        "o"
      ],
      [
        "Ġh",
        "ot"
      ],
      [
        "A",
        "fter"
      ],
      [
        "Ġt",
        "able"
      ],
      [
        "Ġgra",
        "ss"
      ],
      [
        "Ġwor",
        "ry"
      ],
      [
        "Ġd",
        "ark"
      ],
      [
        "Ġtre",
        "es"
      ],
      [
        "Ġvo",
        "ice"
      ],
      [
        "Ġwal",
        "king"
      ],
      [
        "fe",
        "re"
      ],
      [
        "Ġflo",
        "or"
      ],
      [
        "Ġfar",
        "m"
      ],
      [
        "Ġli",
        "on"
      ],
      [
        "Ġto",
        "p"
      ],
      [
        "Ġdif",
        "fere"
      ],
      [
        "Ġp",
        "lease"
      ],
      [
        "Ġr",
        "u"
      ],
      [
        "Ġs",
        "ong"
      ],
      [
        "Ġbut",
        "ter"
      ],
      [
        "Ġt",
        "ail"
      ],
      [
        "Ġswe",
        "et"
      ],
      [
        "M",
        "ax"
      ],
      [
        "Ġsh",
        "out"
      ],
      [
        "Ġcolor",
        "s"
      ],
      [
        "Ġre",
        "ad"
      ],
      [
        "ĠD",
        "ad"
      ],
      [
        "Ġl",
        "ady"
      ],
      [
        "Ġfor",
        "g"
      ],
      [
        "is",
        "y"
      ],
      [
        "Ġleave",
        "s"
      ],
      [
        "Ġclos",
        "er"
      ],
      [
        "ig",
        "n"
      ],
      [
        "Ġcar",
        "s"
      ],
      [
        "Ġturn",
        "ed"
      ],
      [
        "Ġneed",
        "ed"
      ],
      [
        "Ġt",
        "ast"
      ],
      [
        "Wh",
        "y"
      ],
      [
        "ar",
        "ing"
      ],
      [
        "Ġw",
        "ood"
      ],
      [
        "Ġc",
        "ried"
      ],
      [
        "Ġdiffere",
        "nt"
      ],
      [
        "Ġlaug",
        "h"
      ],
      [
        "Ġd",
        "el"
      ],
      [
        "Ġpie",
        "ce"
      ],
      [
        "âĢ",
        "Ļ"
      ],
      [
        "er",
        "ed"
      ],
      [
        "ĠM",
        "r"
      ],
      [
        "Ġro",
        "ll"
      ],
      [
        "Ġadvent",
        "ure"
      ],
      [
        "Ġfi",
        "re"
      ],
      [
        "Ġdo",
        "es"
      ],
      [
        "i",
        "ke"
      ],
      [
        "Ġc",
        "r"
      ],
      [
[...]
